@@UNKNOWN@@
i
.
[CLS]
[SEP]
felt
and
did
my
the
a
for
feel
was
just
of
##s
it
on
minutes
tired
miles
"
!
,
in
to
ran
but
##d
hour
30
'
workout
out
after
walked
an
so
sore
##er
##ed
legs
good
like
exhausted
ups
very
push
en
at
am
today
are
bike
is
tread
##gi
##zed
##e
##mill
20
great
10
really
went
mile
one
squat
3
-
up
two
this
##es
##y
yoga
m
5
##t
were
with
2
played
weights
that
arms
sets
class
do
ve
lifted
three
1
ye
me
afterwards
more
l
rode
strong
15
50
ex
gym
##ing
exercise
##r
minute
hours
##ups
breath
t
leg
first
some
five
’
swam
run
ref
jogged
press
##o
elliptical
100
took
##resh
body
around
relaxed
bench
we
now
fell
shape
weight
doing
[
45
have
as
walk
##n
w
accomplished
back
laps
got
##ted
half
morning
had
s
##h
hurt
during
hike
muscles
they
second
sit
jack
from
##ated
he
time
completed
weak
jumping
about
##g
little
4
work
could
f
finished
when
running
going
get
##bell
dumb
##k
##gor
not
lifting
min
by
all
##vi
basketball
day
chest
##ld
better
you
wind
machine
th
then
##l
feeling
thirty
happy
go
ten
n
o
shaky
she
made
be
fe
pull
sweaty
hard
set
bu
spent
rep
##m
di
abs
tennis
crunch
40
need
because
ha
burning
energetic
mill
four
card
##io
started
used
25
twenty
jogging
game
plank
end
worked
##ps
##rp
wa
##i
walking
pool
long
than
much
still
re
dead
ride
##ees
while
down
ti
pumped
##a
times
again
exercises
al
bar
too
no
over
wo
done
##ly
lot
bicycle
zu
##mba
outside
fire
our
##p
situ
through
how
training
also
##led
##ce
jo
hot
there
pounds
take
video
feet
tried
energy
can
st
swimming
track
bad
##ke
last
##ring
stomach
##lift
before
stationary
excited
trail
getting
proud
pain
ready
##w
mu
worn
rope
aero
se
60
amazing
make
##he
arm
ab
ball
gr
ho
stair
pretty
feels
high
heart
y
##f
park
fun
off
##al
8
every
free
hi
fast
would
fatigue
un
curls
only
##bic
je
$
myself
fresh
neighborhood
bi
brisk
dance
200
:
sweating
home
heavy
drained
af
dog
spin
presses
6
sweat
bit
g
e
its
##ts
dad
kick
burn
or
each
dd
another
week
rowing
her
full
warm
real
where
will
##u
never
shaking
ear
##it
your
steps
afterward
knees
hit
super
##hila
totally
lift
##ght
##ging
##tes
cycle
jump
##llo
##ven
his
them
##has
breathe
start
performed
##ell
##le
##ms
shoulders
yesterday
killing
stairs
being
fifteen
##ng
##st
com
12
##ch
stronger
jumped
##in
hurts
lung
powerful
ok
since
beat
exhaust
terrible
300
lit
fr
yo
##te
swim
days
step
climb
healthy
nice
km
##rated
ja
strength
mini
everyone
mine
relax
u
play
fifty
upper
fitness
pressed
difficult
became
which
te
finish
satisfied
##ju
almost
seconds
complete
fine
la
right
able
extremely
##ot
##lb
##aus
left
even
pound
several
cycling
keep
relaxing
pi
##box
##ar
afternoon
block
hurting
warmed
speed
ju
sick
both
completely
tri
##ht
ao
pl
needed
barely
##re
ou
h
##ty
##et
row
refreshing
stretched
stretching
danced
##lates
until
tough
ah
beach
ba
something
pace
whole
##fi
sure
session
wi
##ry
##ut
has
calm
##lo
doin
stiff
once
de
jelly
hands
sw
volleyball
same
##ll
water
light
cr
working
youtube
motivated
fall
mi
practice
im
any
goo
##ble
##at
routine
mo
butt
saw
muscle
us
fi
those
thought
looked
these
hundred
9
calves
without
river
next
six
numb
best
breathing
bored
floor
football
other
way
determined
li
##ting
##nd
ann
noodles
fee
tight
hand
##ea
ne
mn
aching
what
tomorrow
shoulder
climbed
skipping
awful
cold
few
completing
##hill
top
air
yet
house
thighs
though
think
##ua
kettle
ever
##en
soo
okay
using
may
intense
tod
ny
##her
j
##ur
well
lifts
soccer
shot
know
store
easy
hr
core
less
pushed
meters
ache
glad
##on
place
their
forty
max
new
50th
who
tu
gust
son
##de
##gs
au
rest
limb
du
ii
hungry
##gt
35
power
eli
lake
1st
7
pe
friend
own
per
spend
kilometers
int
loved
fit
##ust
aa
terrific
twelve
under
big
jun
already
lb
weighs
lbs
ar
##cer
stop
b
##ou
##om
chester
pump
ste
fin
makes
intensity
confident
##hit
people
playing
sat
cl
circuit
enjoyed
##th
incline
night
machines
golf
ban
##ptic
150
barre
often
0
kept
field
dying
d
calf
straight
early
die
flights
most
along
nature
##hil
relieved
##ft
past
knee
dr
wonderful
awesome
began
por
quite
fur
weighted
try
##pm
##ating
rate
##dy
overall
always
challenging
weeks
wanted
look
ad
having
##ery
ein
##ong
##cl
tho
##b
##ckle
life
ant
everyday
brush
pro
goal
milk
##our
00
god
peace
bag
red
##nt
couple
enjoy
flexible
chin
raises
mountain
basket
##im
##overs
boxing
fa
##gis
##hi
tire
moving
starting
road
evening
short
rough
head
everything
##or
challenged
far
school
hill
endurance
hope
finally
racing
painful
incredibly
pulled
years
empowered
found
rock
grew
lo
daily
burned
slightly
ni
bo
##day
spinning
riding
##ine
&
mind
war
##su
attended
er
actually
forward
##ae
##rs
##ct
##red
sa
##ig
va
use
thinking
##z
practiced
##ay
90
##min
rows
sho
give
dip
##ga
flexibility
skipped
##ii
away
breathless
rune
##oo
hills
least
mt
##use
dizzy
intervals
hardly
thing
horrible
absolutely
na
ca
##ful
po
sar
##ns
add
thigh
##lly
year
##rd
mai
low
p
##we
wall
following
stand
##rer
worth
want
strained
sur
into
##bbly
fantastic
nap
co
##ul
love
sha
nine
ll
##hus
mean
##oy
##uti
realized
om
ra
mor
##ge
##cise
ama
if
ga
across
drive
##ai
anymore
eat
break
##me
sh
##pe
mph
here
mint
##ls
put
headed
##ers
que
toni
jug
friends
dancing
pick
held
should
stopping
been
explode
sc
blocks
##ee
race
##mi
##amp
slow
nothing
thy
physically
might
sp
soy
cool
form
met
record
con
comfortable
doo
eight
##ti
##rt
mm
many
80
250
tr
ot
aft
curled
stopped
station
ate
##ol
biking
##la
22
##hd
ea
##wo
failure
balance
fees
safe
sec
pass
seemed
stayed
bet
da
pal
z
alive
##is
definitely
heard
lost
##hy
##fer
kinda
boring
awake
loose
making
gotten
##one
lunch
cross
ground
steppe
##out
fu
ev
hold
ist
rubber
tall
mat
relaxation
cal
io
ta
stretches
jam
tow
hoop
stretch
volley
rowe
later
usual
area
tre
said
##oi
lungs
seven
heels
meter
k
local
wiped
os
twice
ow
##aa
killed
##words
miserable
##rating
##ning
ma
##sa
truck
degrees
stupid
must
##sion
##ren
man
rounds
##sis
/
decided
##x
##se
wen
ter
225
bay
25th
ins
wait
ge
effort
acc
watching
mom
##tee
car
wake
sl
##yed
fl
level
##ver
live
##uit
tt
restless
path
missed
##cke
tha
neck
trying
##as
##ve
rec
don
gets
sole
##ck
bn
tin
bed
##ep
lower
gp
##pd
especially
##ked
ji
foot
##ner
##ger
tn
including
quit
##ets
##ca
loosened
boot
##ter
lighter
holes
##ey
group
course
##ied
music
trainer
worm
bot
tran
mostly
weightlifting
increase
##v
pu
nee
##id
##of
participated
##ase
18
##ged
bank
ballet
camp
##ping
##master
raced
stressed
world
##mme
##rou
marathon
suddenly
slug
reached
wr
75
whatever
blood
thirsty
performing
different
mon
active
gives
kilometer
fill
normal
given
##ic
tied
shin
tier
oh
town
although
##ave
##pl
trembling
clean
white
##wn
see
strain
tom
room
beg
v
spaghetti
es
##ion
thou
##gies
##tu
##to
struggling
ware
ana
turned
weakness
won
##ne
ro
enough
##tle
##yt
taking
fore
throw
alarm
move
muscular
##scu
bunch
biceps
watch
tv
somewhat
##ies
control
build
##ence
##cies
men
knew
resistance
instantly
gm
##ow
##ther
##um
followed
##ho
##vr
pedal
##j
july
hs
nearly
alex
drove
menu
tie
tia
match
table
came
him
plain
ya
##hn
##mo
##tic
important
##ired
##oon
inside
begin
kn
wat
##ra
bat
circle
managed
##ith
everybody
eel
pre
ached
br
movement
hips
##ues
tai
job
##lea
##xed
third
rum
wore
##0
help
;
ol
)
sad
##his
mach
sleep
ropes
wei
remember
ap
burns
send
style
interval
standard
hell
##hat
ankles
flex
##c
##ories
vest
beautiful
environment
toes
##ball
roller
wise
passed
games
court
kind
##un
ski
badminton
extensions
skate
adrenaline
catch
beginning
hopped
slower
##hre
##ness
##ro
doe
drink
harder
country
##erated
thee
faster
clear
reach
between
14
street
##sted
fan
slowly
believe
x
##ton
##hing
maximum
500
##ppa
cu
focused
personal
##yo
split
##ure
wear
competitive
##ead
##eon
teams
old
needs
bell
quick
things
%
ham
##il
large
##cu
gu
bye
lil
otherwise
rack
fis
limbs
hated
weigh
##lk
seats
##gre
curl
##per
curly
feed
##ros
yu
##na
forgot
quickly
##so
didn
train
event
wasn
##yn
geo
flow
kid
lived
##ira
exercised
come
middle
##hs
##ike
rev
small
months
entire
care
##free
##ute
##cy
gt
##gga
mental
normally
##ent
looking
si
##lf
og
continue
##rea
green
##way
ec
beating
##era
horse
become
certain
##unds
ir
finger
##ely
ts
cha
ling
percent
outs
ac
either
##com
##ub
ali
double
round
lap
als
gi
hear
regularly
degree
##fr
alert
##od
non
ninety
afraid
fly
say
walks
health
joy
powder
summer
sr
broke
flight
building
ned
city
##gizing
000
sam
ag
##ss
usually
el
##cal
save
fails
tad
probably
hip
thrusts
pleasantly
keeping
sexy
bud
bee
##ple
rather
bt
nor
wet
nt
toned
capable
immediately
born
heat
dow
awkward
confused
##go
shower
activities
##pr
giving
##bi
##ks
##thing
surfing
count
abdomen
close
numerous
improve
struggle
slept
type
hu
softball
fulfilling
fish
##ze
hiking
passing
tighter
##fo
##med
20th
skip
boxed
karate
##ped
heel
consecutive
cricket
nobody
performance
##sc
##tis
couldn
longer
productive
kilometres
anyway
till
##uts
##rred
cars
trial
sprint
ting
sun
key
##sen
mark
expected
outdoors
##ned
fist
throughout
adventure
increased
##ru
collapse
poor
lose
indoor
picked
##hed
##ous
neighbor
content
paint
considered
##sto
##pel
##ete
kg
##gh
##ud
sumo
effective
side
alongside
##uin
##8
knock
stood
nave
##pet
cast
70
metres
##ried
senior
citizen
fir
against
jake
mit
ut
hal
##ove
such
ai
6th
##over
food
lee
##tt
##weight
##lar
exercising
wow
tan
someone
preacher
pushing
wil
liked
cyclic
##icle
##rk
itv
30th
reading
##fe
##lot
##ist
lasted
##cic
##ku
ci
test
sm
nat
constantly
##ley
medium
rail
boy
fairly
rpm
woke
##aday
habit
towards
hat
canal
dirty
wan
##pu
##yas
##mous
tonight
cy
coming
pains
nan
##umb
tar
##rable
late
heal
shi
##pp
acted
55
##xi
ip
seen
##rus
matches
spouse
##mute
singles
kill
pay
phone
gem
##ik
ia
flee
##ying
ton
##cus
##rey
seventy
।
shack
focus
prefer
wu
struggled
et
scared
ff
locked
kicks
sap
cam
nad
hunter
line
why
trough
aw
huge
##nds
total
central
##kk
longest
enjoyable
wished
##very
pleased
kids
stroll
trip
read
mood
ask
nate
arrived
dogs
##rg
##tly
##hh
fight
stress
apartment
##ened
worried
stepped
progress
##est
(
##thi
sucked
##hg
please
##able
solid
snow
##lp
fingers
foe
sixty
dat
forth
mas
##hine
jumps
pained
##ess
upstairs
##ining
sometimes
##ir
?
stil
raw
lots
noah
##uer
brave
threw
age
##lete
storing
heavier
rick
previous
sounded
matt
let
focusing
##rin
##wen
##uder
twists
##sh
stuff
gas
op
part
hare
##gur
##uet
meet
together
rotation
##mmy
vital
##ity
plenty
##di
##wi
sting
pressing
remained
exciting
dam
185
ind
##cs
helped
sep
sense
soon
##ane
kevin
ka
moor
lucky
military
##ise
##light
fans
##san
##ches
near
##ap
##ib
##how
cramped
workshop
calming
##lled
##ime
ice
however
athletic
##body
challenge
##vy
butterfly
##ber
living
rocks
standing
find
##rly
lick
instead
pa
##py
##us
##und
shake
parked
innings
throwing
##ds
spirits
witnessing
loss
asleep
nearby
##up
##gg
groove
called
##amina
runs
wheelchair
gardening
tram
##pol
josh
tracked
vis
curves
annoyed
##ci
boat
waterfall
##bo
rested
bus
peaceful
##ky
##uta
forest
buy
player
amount
thousand
bursting
hate
black
##ual
nervous
##ef
##cie
extent
tone
holding
belly
wings
ae
pig
master
ago
climbing
13
assisted
achievement
party
paperwork
##hua
boots
##work
arts
##ido
month
kay
shuttle
pitched
baseball
simultaneously
##met
##res
sidewalk
##outh
##ami
##lag
##hl
circulation
asa
stops
downtown
beast
virginia
pumping
800
levels
##case
loop
cinder
prof
tender
psyche
quarter
##uted
##ouse
anyone
tame
realize
girlfriend
compared
bath
ring
engaged
sprinted
appeared
temperature
kam
excellent
easier
##git
gross
yard
##ta
tip
hilly
injured
##1
##lin
hood
honestly
smelled
clothes
drenched
shit
overwhelmed
entered
##vin
women
flew
pow
##eg
##uch
supposed
##fort
##ited
gymnast
##kt
loud
issue
act
drop
##ys
##pw
##lle
##tl
##hei
vi
wild
bodies
##ji
successful
##yu
su
eleven
॥
founded
##ters
##hc
lie
palms
##lt
rom
gov
counted
elbow
med
##isi
program
severe
skirts
punched
boys
##ions
wit
berry
size
repetition
rt
bring
eighty
ob
stroke
bump
beck
£
bones
gut
##ff
tool
vigorous
returned
fail
torso
##laise
eng
shoreline
net
containing
resist
##rti
hanging
sixth
cracked
nw
plane
single
hair
blew
##els
somebody
##ad
##uc
seventeen
screaming
paces
quivering
stan
anticipated
awoke
chris
sold
##cc
##ital
##nig
arc
sai
vent
shoes
vr
##ched
length
weird
lai
##ddling
##omo
inch
rally
trails
##walk
dream
finishing
points
##dd
logs
bound
cause
seat
remain
lame
##form
##fl
david
rides
roads
cheeks
satisfying
15th
lonely
bra
mum
carr
##nis
soc
mw
##zin
coach
##ink
##usly
ribs
nod
bruises
fists
cn
learned
knuckles
basement
pulls
point
##ling
touch
rae
struggles
tree
turn
maybe
shark
instant
##ri
tense
ang
shy
empty
eyes
series
##ount
nerve
##ally
practically
thank
does
lt
##ult
sas
180
differ
mall
father
earlier
##fy
seem
book
young
kings
strange
ultimate
upbeat
##urs
thru
sessions
company
##wing
farther
foolish
5th
##dra
initially
talk
member
hack
knowing
distance
triad
##ars
1000
flowing
##dm
##ill
achilles
relieve
surprisingly
fat
##oth
hospital
silly
##ec
map
tim
bags
mis
revived
##hone
nest
##ung
tak
alone
##tre
##ml
monday
##ler
bone
unstable
charlie
##nock
sporting
carry
stare
elliptic
##ag
pm
##rc
##astic
##og
le
##pit
##ical
allowed
straining
lay
gate
##ini
above
coffee
lok
28
##oa
##uous
nights
thai
intro
und
within
em
orgasm
rr
r
ata
discomfort
gain
silent
bill
figured
##ire
tingling
##hli
##fting
##gy
general
##ice
tasted
##een
##rring
isolated
onto
holiday
md
##ear
dropped
##ock
##rn
grip
goin
winter
church
inches
throbbing
smart
hers
ib
armed
healed
magic
##rity
##war
damn
##yd
lea
russian
fair
sound
plus
downs
suggesting
destroyed
##no
fucking
##ite
vu
insanity
shu
##an
math
##vd
##metric
##eth
heaviest
triple
##ges
##ond
##cted
accident
##king
tournament
nutrition
true
205
ones
achieved
decline
filled
##ment
episode
##att
##ech
peak
chair
flat
120
##ede
elbows
##oud
positive
gradually
downward
facing
##tas
sv
##ana
##co
##rst
warmth
##ule
uno
##hic
##plate
##ori
##ces
ee
##ady
intimidated
final
vo
pr
##actic
fabulous
leaving
bucket
##rien
fifth
##val
##yana
##mas
##kar
adjusting
！
based
id
bea
poses
inc
heaving
ripped
bounced
ymca
##mot
cut
olds
##li
improving
##uche
bala
dawn
site
tuesday
eve
##vel
col
dazed
sum
disgust
delighted
##ressed
##ege
boosted
corner
utterly
##vir
tata
ph
stuck
ke
stage
rice
panting
upright
star
##ded
ben
twisted
function
##pi
##ain
##lu
##quet
##tics
functional
raked
beam
fort
firm
netball
band
sits
moderate
stadium
deter
##mind
plays
archery
competed
##lder
cannot
##sr
position
harding
wound
leave
##oned
peter
employee
abd
incredible
##nished
algebra
nike
classes
drank
secret
mild
spencer
butte
experience
cone
woods
##wind
ass
embarrassed
##cr
las
sounds
##tan
##ah
grass
champ
lacking
team
ryan
hole
plaid
##bal
bas
##all
backyard
closed
poole
toward
angel
stick
##agi
##nated
##pen
ty
owe
shared
##bol
##cle
##ily
swollen
lead
lau
weekend
taste
ch
##lor
cloud
gin
kilometre
##ttle
dock
south
yards
cult
##lla
##nl
##hin
##am
##mming
yourself
##irs
places
mann
cole
cycles
broken
shouldn
##ching
yer
##sta
##mg
stu
tap
static
tremble
##just
wah
moon
lunged
8th
reverse
miss
dane
rare
##ak
rain
pop
gained
=
satisfaction
piano
outdoor
vol
##rid
bowling
similar
##mit
sensation
wes
average
wanting
##wee
adding
gold
endured
gasping
sociology
helps
bible
marcia
badly
mobility
box
##ose
thrust
hang
death
excitement
scored
conditioned
sins
dvd
others
rebound
nec
##eda
decision
bun
##gee
##head
##ake
##ding
grain
cleaning
##less
cowboy
infant
##har
front
trained
relief
taekwondo
aimed
plant
aka
conquered
humidity
soup
##block
depleted
runner
raining
##cent
terribly
cutting
ri
##jured
weather
lev
strait
shining
ultra
spartan
limit
entertained
nonstop
crushed
sharp
torre
pines
join
patch
##ha
else
kan
##nn
jessica
##phine
nintendo
switch
rests
##uh
mesa
lack
crazy
higher
joint
toe
##nu
headache
completion
dec
##athlon
##ahu
reward
strangely
fields
itself
##ctic
dragging
ze
chances
terrifying
##ull
parc
parents
grateful
alright
##igh
##by
beams
mara
##zing
driving
suns
67
eu
##ph
##oric
##mins
spot
235
##bly
23
featuring
homeless
story
##rret
models
victoria
attempts
ft
##bu
dai
attempt
tau
bobby
##ably
tech
##nik
wrote
scream
##ive
unable
##top
hey
lines
db
thomas
##pa
##gue
witch
prop
##rie
ashamed
larger
##zai
##sed
cm
arithmetic
swings
groaned
rotting
##lev
pieces
options
stay
vowed
sq
##ats
taxi
represents
favor
##tite
medicine
sneak
##oked
success
##ny
height
uses
drunk
fra
tag
various
##cao
whose
##odies
means
indeed
##sic
collect
killer
##sco
##unt
##side
ponds
falls
lips
##hey
beats
##ax
##lite
tricks
damage
crap
##pic
sul
show
skin
twitch
watches
labour
earliest
manage
eternity
worker
##ergy
##nen
barge
##tier
lent
##oot
zero
sugar
##ide
ears
breathed
bey
##sd
proved
comedy
yeah
backed
motorcycle
cap
##ici
parking
##olt
rid
dirt
sky
ep
mighty
covered
##eve
lever
ono
wee
##aks
scheduled
breaks
scar
##ving
hungary
blake
approximately
thirteen
##nr
dated
mount
##ized
ways
september
compelled
steam
rob
##vic
##ible
tiles
##por
##mal
west
quad
harley
motive
phantom
potential
jeep
##av
files
##si
##kle
yoo
##kling
meant
reid
carousel
internet
straightened
healing
possess
steered
owned
woo
##fur
mary
anything
##get
asphalt
colt
##nin
125
##dant
laughed
fixing
buying
##ined
spp
##inn
questions
plata
##jer
fix
arizona
paralyzed
matthew
##zzi
##uber
##ant
##tr
emma
directions
##tter
##ek
whoever
buck
applies
rapidly
totaled
write
##wl
##ige
sea
ages
girls
##hot
mere
pia
championships
##nse
themselves
haven
chloe
##tino
ms
doubles
hive
neither
episodes
wakes
der
##ente
follow
##kat
andrew
##oue
falling
pt
##rac
services
related
fulfilled
hits
##ert
##bay
groups
mastered
dei
yelled
chicken
fourth
deliver
tee
film
motion
pictures
##ener
##ways
ford
##llan
##dles
##che
##tron
shirts
fought
handle
qu
kw
backs
rubbing
##yar
grabbed
##ught
##ished
handcuffs
coop
offs
##itt
##vre
surprised
breasts
everywhere
##oes
##rr
fitted
##kon
ward
buttons
bent
##rkin
##for
moaning
bull
face
torn
bitch
spring
##rry
ada
served
def
jim
evans
tests
luck
##ester
##some
##nts
underneath
subdivision
wearing
loaded
backpack
brains
preserve
##sel
starter
##vus
meaning
behind
rated
faith
pea
##ciful
cooke
rained
tea
downstairs
##wise
mc
##dan
##iel
drew
wire
bel
##ie
##vie
mare
disk
##em
prior
whenever
acceleration
leslie
sans
vigorously
reportedly
42
gear
eventually
family
distracted
sip
reads
##front
reasons
inspired
saying
hello
continent
tackle
##dden
charged
14th
trek
target
happier
fourteen
worst
secondly
pleasant
600
survived
boarding
wai
3rd
brief
traveled
reduce
##eed
husband
##ming
operate
##iting
forming
##act
increases
groceries
##el
willow
lively
television
6000
perimeter
cheered
falcon
rigorous
escort
##zy
casual
believing
##ree
honest
joe
mr
stimulated
simon
listening
learning
]
lowered
##ands
word
thrilled
bog
##vious
random
bricks
##var
usd
##tat
indoors
hart
brain
shocked
beth
builds
vacation
##ern
boo
locking
countless
ours
noon
##org
mac
pistons
boss
stool
mixed
optimistic
meals
outstanding
professional
##stan
bitter
spending
wheel
awhile
tome
grand
##ath
bridge
##chin
clumsy
movies
bells
##uing
##ople
##eal
carried
interested
hurdles
##gie
cab
alt
##ug
campus
obedience
north
##ots
fai
load
130
proper
controlled
promise
##va
wight
mike
grey
alike
##vet
gaining
due
grows
temple
starred
athlete
chase
wrestled
club
swing
tapped
giggled
raised
cable
monitored
via
demanding
ava
robber
millie
bis
snatch
variations
self
tested
studied
route
repeated
dt
examined
imp
labor
clinic
smell
calmed
trillion
##low
talked
##oc
##ue
choked
online
shut
##nes
temples
escapes
hem
firth
##ih
##nk
##ses
takes
cat
mouth
##tha
uncomfortable
fins
mig
missing
fluttering
imagined
cuts
plan
teeth
##ische
spots
##les
distress
seek
##eke
##sal
lena
cape
##oin
suicide
hardest
##os
variety
tremendous
litter
hog
##my
##fire
faint
stone
##cuit
##etti
cooling
limited
pumps
hunger
bloody
activated
hitting
moore
xavier
counts
trembled
una
works
99
couch
looks
##tious
gone
fits
volume
firmly
##rar
button
ease
##uy
prepare
sol
duck
ds
##rts
135
##pressed
impressed
sis
##xt
perfect
caught
stung
throat
faced
##omp
##lis
injury
collapsed
4th
told
admit
lawyer
bid
drills
anal
##ises
baby
import
##vis
rigid
radio
monitor
fires
bottom
dial
accomplishment
tells
dropping
stared
##ening
##kh
##owed
problem
email
##aea
brings
tor
howe
seriously
buzzed
##lee
established
sent
winger
##sef
##room
dye
vin
pose
bulging
win
hp
reg
##ila
ale
angle
stat
##ka
glasses
attend
medical
##mt
##mos
app
switched
emotionally
ignore
##ibe
##ura
spite
difficulty
assessment
##tern
##eti
visited
##iba
che
watched
glass
pact
apples
computer
fond
##wr
silence
est
##udi
remembering
mediation
heated
geometry
eric
recognized
les
strung
mid
knitting
condition
avery
cried
blow
dollars
princeton
enzymes
speech
basically
##ob
##ics
woman
audio
##shi
##eld
##ize
olivia
weekly
dancer
cis
##ten
backward
##iv
pressure
taken
bedroom
lime
bouncing
ascent
song
leaning
bal
##ort
enter
adam
##gan
overwhelming
160
il
sorts
qi
died
##lai
sen
sin
tapes
poe
lamps
extreme
joints
rolls
popped
alter
chamber
leather
funny
ara
scrub
ing
anger
wonder
##jo
anxious
##urt
sleepy
mock
##mac
sited
regular
backwards
scott
han
##lov
sailing
rug
ron
joo
built
includes
intensely
sweater
jenny
##eric
henry
##iy
unconscious
grow
glanced
led
##eni
resting
floating
##ome
shortly
exactly
estate
psi
##tive
staff
##nte
none
terri
augmented
reality
blamed
inn
##ind
robbed
sidewalks
showered
natural
##vo
averaged
grant
##sp
cardiovascular
upon
din
purpose
seems
nightmare
##lace
clips
dion
sorry
sunday
alternately
touched
opposite
instance
##ction
##tres
sides
alla
parallel
hydro
##nas
simple
draw
maintain
saber
handball
herd
safety
##iro
gravity
##chers
tail
##ors
starving
call
##ene
nerves
gotta
26
mae
fence
existed
cheer
competition
cleaned
leaves
deep
frog
burnt
farmer
therapy
##jing
invested
##ip
##sit
wii
swiss
##balance
pont
rusty
obstacle
naval
base
partners
paying
##lling
adds
##sho
useful
##20
yd
pushes
dramatically
slowed
##minated
silver
##rna
##list
meetings
##op
says
friday
vocal
nearing
##let
iv
hop
fastest
typically
jazz
experimental
special
bc
typical
##cina
##tion
tony
dollar
spa
tempo
america
nay
##cion
##sle
remembered
putting
altogether
gymnastics
##edge
lounge
breakfast
plates
drill
mori
##with
alto
amazingly
##net
ill
bout
maria
barrow
funeral
ridge
endless
scenery
pounding
##bor
steep
cliff
##rdy
pack
travelers
##ret
pleas
##sg
ser
##eva
pinnacle
dir
##ett
connected
edge
ie
hide
ares
change
classified
pic
mer
tyre
pork
coordination
pink
basque
companions
generally
abandoned
forced
gram
shooting
debated
##uez
##ei
uncle
##kr
##eb
##ently
deprived
##ition
coached
artist
##band
newer
##mies
##gle
##ours
##ba
##joy
winters
learn
uniform
nick
breast
##rds
opposing
##lay
firstly
##ole
moves
admire
easily
distances
consider
traditional
physical
demonstration
ankle
baths
¡
happen
colossal
swami
##static
dee
##lok
av
ars
eating
loco
poll
ordeal
##oe
smile
billy
240
##cre
cove
##rip
pier
steady
##won
shorts
waiter
filthy
sb
bigger
cry
replaced
alps
nic
##ool
lifetime
##oss
lim
pools
owen
release
contents
barred
maintaining
checking
##rre
pulse
##wat
paper
##sei
create
lazy
ko
##old
wish
vie
marshall
drowning
lester
lesser
gonna
ren
diminished
ml
web
person
##iable
lights
##abe
techniques
##right
um
aim
##tsu
punching
yours
monster
infrared
check
helpless
bro
noticed
pairs
thumb
contestants
garden
prepared
garde
foods
advanced
studio
choreography
til
fia
##gni
extra
##oma
practicing
approx
##mat
##aling
##the
freezing
##efe
neon
swore
bruised
##rted
doi
jason
shivering
##sy
weaker
filling
##vey
grabbing
types
##ross
##uld
tires
##hrer
happened
ridiculous
hoping
##be
virgin
##bing
attack
das
floors
##oped
conditions
jessie
teen
moments
##wer
trials
monitoring
700
mal
favorite
wasted
internship
##hala
##rit
##lles
candy
16
conquer
narrow
amp
##you
haas
spit
collected
measure
wide
\
##ote
##sson
pas
money
##cial
##cci
##door
##oun
action
sand
ended
putin
obe
castles
conscious
lid
contest
paid
opponents
members
rachel
##ound
mora
##cam
heath
rear
luc
·
information
worship
calling
travel
##fide
##ral
##oms
breaths
sara
likes
remarkable
aye
##bet
bread
lean
##ial
##iss
board
hearts
##cite
##rl
scan
passes
tattoo
3000
loading
##hab
thirst
imagination
fig
english
eye
flying
##hu
deer
study
sic
##que
cents
##ored
##man
actively
##nne
kits
pausing
##kki
dorm
trainee
martial
planting
mk
trunks
jesse
fully
properly
growing
##fu
##table
weaken
##own
ce
consisted
##iste
flexed
##rick
ends
##iating
lang
columns
recovered
##iche
uneasy
tell
##gl
exam
##sl
##ham
chang
seminar
avoided
##rica
##uce
ami
planned
cheerleading
impact
huff
puff
##hort
kicked
eva
thin
convicted
discharged
thus
added
comfort
finnish
asked
ed
regret
data
james
spotted
string
concerts
hai
##ppy
sitting
iron
cindy
140
fran
aaron
33
##aking
rein
moved
stones
hurry
magnitude
showers
seo
knows
eyed
trunk
turns
##zi
##nan
sport
##if
smells
fife
olympics
ian
##ffie
##rent
##port
barn
mp
wing
enhancing
##rrow
##uss
understand
##vid
yi
eddie
##hr
##oor
conditioning
cooper
olympic
hadn
movie
todd
##dler
##yon
fiancee
mono
circulating
post
##par
##tum
##km
improved
billion
##imeters
overcome
trouble
constant
ki
##sti
somewhere
brutal
further
barefoot
segments
portions
considerable
romanian
dedicated
leisure
pena
##qui
##tos
canyon
##5
biker
##idi
wonders
##leton
bikes
sandwich
yell
gave
defeated
inadequate
helpful
perform
##rangle
pokemon
shiny
giant
goals
doctor
guilty
trash
increasing
##ows
forever
fired
setting
gains
perhaps
aggressive
##odle
abdominal
planet
190
del
tenth
exhaustion
motivation
invincible
benches
##pal
##bha
lightweight
##ya
nam
##ask
regime
ted
##ious
##fle
centered
lifeless
carrying
enjoying
tighten
cobra
lacrosse
derby
washed
##bee
##log
intending
logged
alternating
bounce
slowing
belt
routing
bands
##hwa
interest
daughter
stepping
elevator
period
skiing
rewarded
atmosphere
rower
##ew
songs
batman
squad
elle
halfway
nylon
boulder
squash
paddle
##water
##int
##rup
##bla
facility
skating
fours
bathroom
kitchen
