@@UNKNOWN@@
i
.
[CLS]
[SEP]
felt
and
my
the
did
a
for
##s
was
of
feel
on
just
'
it
##k
##d
"
,
##t
!
to
in
minutes
tired
miles
##y
##e
<
so
ran
but
>
##er
out
##ed
un
m
30
##g
hour
en
##r
at
##l
an
##h
w
walked
t
am
after
f
workout
s
very
ups
sore
good
up
##f
exhausted
legs
$
like
3
5
are
today
l
##zed
##n
##gi
##j
push
2
tread
really
great
do
th
20
10
##mill
two
##4
o
we
##w
bike
one
##x
e
##q
ex
fe
mile
-
went
me
1
##o
##z
##es
y
##ly
is
#
this
were
yoga
squat
%
re
##3
st
##ing
d
##m
(
played
arms
now
weights
sets
j
with
ju
that
4
*
^
had
15
run
go
##v
more
gym
##8
not
##5
class
three
ve
as
##c
ha
h
got
lifted
all
@
##b
be
n
##st
day
afterwards
##9
50
rode
&
/
ho
##2
you
first
breath
al
##6
45
ref
##a
r
[
b
walk
##p
strong
around
doing
##ng
have
ti
##u
minute
min
leg
sit
exercise
)
100
jogged
##vi
##i
:
p
##resh
get
g
body
wo
##ted
elliptical
##ll
##7
##ve
swam
bench
back
press
morning
shape
hours
relaxed
##ups
he
x
##ated
by
li
##0
##lly
ab
u
40
about
##gor
bu
weight
hi
little
laps
half
accomplished
some
##lt
jumping
running
ten
five
jack
jo
during
im
completed
work
6
mi
##re
q
;
or
muscles
fr
hike
##ke
hurt
##ts
fee
##le
weak
time
##ce
##he
finished
second
end
real
took
mu
##ps
still
set
if
mo
di
rep
too
?
##ut
##ea
25
could
wa
no
bo
wind
feeling
0
8
chest
z
lo
when
going
machine
##th
##in
lifting
v
also
happy
over
bi
##ht
##te
ar
wi
aft
pull
basketball
fi
dumb
better
gr
from
ll
##bell
tt
can
##rp
##at
spent
##ou
tennis
ou
##day
ba
##ch
abs
##io
##nd
9
##nt
##ay
##ft
again
af
##al
##ry
se
pl
ne
##ur
thirty
##ld
ja
ii
pu
yo
walking
four
us
##je
hit
co
##rs
because
arm
energetic
c
ee
##en
crunch
hot
hard
actually
then
sweaty
##ght
##wr
off
only
need
our
down
burning
de
jogging
k
than
dead
made
how
ni
sw
used
##ds
##me
ea
la
card
much
tr
##hs
long
ah
##on
##ee
##gs
tha
##de
game
zu
outside
shaky
##ty
fell
##ees
plank
dog
com
bad
times
done
while
bar
te
##sr
who
tod
ao
worked
lit
##ks
##mba
##fe
##ally
je
##fi
exercises
##ck
cl
video
would
fun
el
##el
ed
##ls
##gg
training
ag
##rd
##ol
##gt
started
##lu
yesterday
its
##it
bicycle
pool
totally
tu
pumped
pain
##gh
##ring
heart
le
##im
lift
po
ball
ro
##ef
##bic
##ms
da
##ge
swimming
track
new
ok
60
7
last
twenty
##wn
through
##led
they
##out
##ust
getting
12
##ua
aero
##ter
lot
br
##dd
ready
myself
##be
fin
fire
stomach
##xt
pounds
du
##ig
ge
##ti
ride
stationary
##fr
##ar
##ha
nice
##jn
pretty
full
act
##lift
per
soo
##js
##hg
##ss
##lk
##ws
##dy
pre
park
##wd
tried
heavy
##ne
##ot
ever
##llo
fresh
ff
##od
##wl
ad
goo
week
sh
already
completely
before
ma
worn
play
pi
rope
##lo
energy
##fs
neighborhood
trail
na
ye
straight
fu
##ju
##ven
##se
##red
pe
##pl
stair
even
##is
situ
few
##et
##id
super
feels
##her
##or
whole
##sl
##ked
ty
sl
##lf
curls
may
block
amazing
er
km
proud
high
mill
home
fatigue
##ew
##ic
way
burn
saw
doin
her
##li
start
##hila
es
##ih
she
fa
drained
any
##di
yet
cr
##ute
au
##py
sq
each
will
##ec
##sy
dad
gi
##we
##kr
ac
lung
##us
##rea
sweat
##ai
terrible
##wt
200
warm
six
kinda
##sh
sp
ol
ta
##rk
almost
ai
dr
exhaust
hs
hu
spin
##rr
ev
##ex
presses
killing
working
other
##om
##ir
ng
always
well
bit
##rt
##ca
rs
pr
##oe
##ell
eve
nt
ki
ear
##tu
su
free
em
take
##ba
brisk
hr
days
et
##ent
afterward
mk
##ad
sat
ot
ing
##tes
35
##oy
tn
##ni
als
has
00
steps
excited
yu
vi
wei
##pe
ste
ap
##ns
look
your
##rg
ga
shoulders
jump
sf
##mi
##sc
knees
##fa
extremely
being
fast
##ie
##hed
tire
water
eh
tri
##ri
’
finally
##ey
pro
##la
them
##ful
##to
##hd
##ged
swim
dance
sweating
calves
there
complete
right
##ver
kn
##ul
##sg
##rf
able
##hil
ae
light
never
max
##wi
##ble
ec
##dt
##eg
performed
shaking
thighs
tho
once
quite
##oo
##lr
##mp
ts
##lp
##sf
##cl
##of
##go
row
stretched
climb
kick
rowing
every
ri
##rl
pace
feet
hurting
##so
##ied
##ae
thought
##gis
make
powerful
##nl
fit
##vy
oh
wr
ke
sr
##ead
##ib
##ho
##ting
left
put
##oh
ji
keep
aa
##ci
##tly
wit
upper
son
ce
war
stretching
mor
difficult
warmed
##rated
sc
stairs
red
fine
##ky
rec
ia
air
##fl
il
##fo
both
##lb
strength
##pt
ph
##ij
##hat
##3d
##fer
##kt
cycle
cycling
##rn
relax
volleyball
most
own
##ln
##da
##hill
top
sy
finish
##tt
numb
tre
wen
ago
##1
what
##pr
300
13
fl
vr
man
##ak
av
think
core
##cer
ic
##ru
pound
pa
tel
here
sec
##rst
stronger
##ct
ra
thou
cold
wee
jelly
##our
rd
cal
##fy
tomorrow
sha
##nh
pressed
danced
##lates
##box
breathing
speed
something
beat
fifteen
##ers
see
dow
physically
motivated
bored
beach
ya
##has
tough
lu
completing
##ong
rr
dd
##ja
low
##ery
##ro
##ase
became
power
##tua
##ga
qui
##qi
those
og
##cs
having
using
##ny
ob
intense
##dm
seconds
int
##ely
relaxing
##oun
##rh
recently
##ko
##per
##ugh
tb
sho
##ill
jumped
without
since
afternoon
##les
va
##ag
easy
house
yes
healthy
awful
kilometers
sure
breathe
50th
satisfied
##il
less
lbs
sa
ow
kin
session
nu
##vs
##hr
bet
##hi
incredibly
year
butt
kettle
ua
ein
ser
##co
sur
##ys
##ug
fur
##ue
##fk
90
ct
##mg
##iy
##all
##mo
##oa
use
golf
##am
##ob
wat
sg
res
##un
os
hat
cross
##aj
##ao
these
fifty
hundred
circuit
hand
fitness
lifts
##ome
stretches
another
mil
die
youtube
lt
sim
##uh
ch
next
football
same
road
ache
place
hear
##tr
though
ci
yi
noodles
##his
##tl
weeks
##ep
probably
##uw
old
where
challenging
fir
##dl
##au
##ning
wanted
ka
ir
##hy
##cy
calm
ko
##for
car
must
##ger
extra
hurts
aw
big
refreshing
climbed
step
hills
don
away
early
shot
absolutely
rum
##use
glad
fall
terrific
##rou
calf
awesome
which
know
painful
hill
evening
dh
sick
##ded
lb
##ple
wu
##med
daily
##if
##su
form
##wy
say
##sa
##vd
routine
##ta
ie
their
##hing
ate
##op
##ow
sm
vo
##hes
del
##ull
##ok
##ating
##ung
bas
##mt
muscle
las
eat
##igh
##oin
everyday
##ner
##uts
22
##tf
mine
##urs
##haus
si
bag
bed
##cise
love
##hn
kid
tow
##lm
barely
##si
##aa
lap
##rer
##bi
con
sk
##int
##sic
flexible
soccer
##one
ca
add
dl
floor
ike
##gy
ze
forty
hq
##ji
along
his
flights
might
bee
##nut
##hus
##get
ut
##xa
weighs
mp
80
mai
ham
tight
rate
ru
5th
quick
wet
sad
bye
##ley
pump
stiff
##bl
slightly
##yt
hungry
intensity
##rly
##na
##ml
##bs
td
stil
##ze
##kk
rest
limb
iv
##ually
##an
rig
##sd
pick
bot
incline
##hh
##oi
playing
##ik
##kou
shoulder
##bu
why
skipping
slow
hal
honestly
##dr
##oj
##ned
lake
nature
##ere
pushed
friend
twice
##fu
racing
determined
far
##sted
challenged
mentally
##ith
meters
rough
1st
lok
##xy
tv
##ten
##nce
jun
##hen
gu
lower
##hl
##ear
mom
read
der
wall
io
alive
ck
##mb
##bt
fantastic
overall
makes
##jo
riding
om
##ber
##cis
##ped
stu
##ain
total
ins
##ate
##ff
jin
mini
##os
ice
sd
awake
##ical
mountain
##ess
##ges
practice
##og
life
definitely
aching
ku
hands
beg
pd
##tty
##ki
##ah
##ap
##ku
##sel
##um
ny
ban
basically
dip
volley
boxing
##cu
##res
actual
slug
##nu
##rating
dying
##ized
##as
least
##amp
##nn
##aus
op
##ez
##wo
sum
should
##ues
##ure
endurance
mig
##wa
dee
want
ib
dt
began
weighted
stop
doi
##rin
##af
##pd
##ret
##ding
##est
bea
immediately
##uf
##uo
pow
##ud
gee
rt
##by
##ball
acc
##bly
eight
tea
confident
##ntly
gut
let
##gm
god
##wu
biking
ben
quit
kids
por
##cus
fed
##jk
nap
tee
balance
nine
wal
##ev
##ax
##nr
white
##ore
##ite
milk
bs
##ine
night
games
##kle
##hu
##ging
##nes
mind
enjoyed
bay
eli
##hit
machines
##uti
##bo
##cal
tim
##ptic
##the
11
##min
##gr
skip
kind
rounds
race
blocks
##pp
sun
moving
often
hood
looked
into
wonderful
##cr
boy
until
##ii
different
adrenaline
horrible
short
##tel
try
head
##oth
##km
flat
##ies
##nte
been
past
thing
job
starting
under
ak
river
knee
blood
##ton
##dly
ale
##cd
##eal
literally
##tc
##ckle
##thi
empowered
burned
qu
instantly
##ved
stand
##zy
##hin
ss
##nig
many
making
reel
rf
##ling
##sk
tak
##ye
##xed
sar
##yi
##vin
twelve
ml
mt
gin
cu
##bbly
##bis
##ac
##vr
##do
people
##bed
net
cy
rn
goal
spinning
ways
entire
##eh
app
##sw
ill
##zd
attended
##wc
ld
##em
##ren
##cic
gel
que
##ail
150
##gb
ui
##nin
gust
##way
ain
become
##yed
everything
buy
friends
18
##pm
ms
star
break
und
health
mostly
##iz
##va
chester
wil
plus
##fly
##wer
##der
shi
mon
pt
vu
dam
group
headed
rows
hip
foot
third
##up
##ward
##ving
aye
hoop
dancing
chin
killed
stopping
gave
##gged
town
spend
usual
local
nile
##ous
4th
ul
catch
wiped
excellent
hope
##lin
##rb
active
##ster
hardly
field
store
##ough
mint
##kh
tier
##gen
##yo
##no
##hem
nearly
##bol
250
decided
225
hz
##hp
mph
suddenly
hd
enough
bell
##ux
##gu
said
gotten
lea
fucking
##unt
rubber
ara
##hal
16
##fted
##pel
xi
exactly
ds
sai
##ces
##gai
weekend
box
##ma
wow
dan
##ound
##rti
pee
##cle
tom
ant
lots
mit
failure
wb
##pi
##lke
nes
exercised
didn
ono
nut
##ath
month
col
okay
bk
station
inc
hm
##cks
ana
ass
##ise
rowe
##tiv
##ock
##ide
##ying
##ion
pm
mn
les
##ual
doo
hiking
sb
path
eel
ax
level
nave
##wk
##tre
table
##ond
gets
##pa
##rre
met
##gl
rex
bat
##ence
##wen
peace
otherwise
couple
wore
lighter
loose
course
nr
non
##nk
pg
##kki
##ount
##king
##sat
##mme
fill
120
trainer
##chin
##fed
weightlifting
increase
##ub
##tron
near
##lle
cw
give
##are
however
##nda
challenge
##ka
gold
participated
flexibility
##ree
##mm
##ost
pass
foo
enjoy
boxed
lungs
marathon
increased
intervals
between
relieved
##par
##jin
##dry
beautiful
later
stressed
dizzy
thin
##und
normally
world
kept
although
##ness
##har
performing
clear
gives
best
faster
slowly
seven
ring
##uy
nee
ann
indoor
kilometres
75
soy
##ert
##ive
##jer
fully
ip
##ron
500
record
post
focused
ware
struggling
tor
ally
girl
thigh
ky
##eme
##ppy
worth
following
che
##tin
looking
side
##ets
##ett
##ike
anymore
##rts
##ete
##gin
##far
##rri
curled
cid
watching
fan
bel
##ight
##oon
##ily
truly
nat
##ui
##umb
id
rat
55
##jing
##sol
##rse
qb
dj
somewhat
come
came
##hine
##iv
previous
##hic
##ra
pun
pedal
ur
##sm
finishing
fairly
web
##mer
##art
age
trying
damn
ark
##uc
##hc
##mat
realized
flow
##hre
##lled
##rdi
maybe
fx
regularly
##mis
aba
ry
tia
owe
sts
##eo
including
worm
##ix
nl
##aly
front
nw
especially
var
lunch
boring
boot
wai
fort
comfortable
fees
ali
##zo
##scu
dogs
music
holes
##hm
joy
needed
progress
inside
din
##rio
classes
held
ang
##omp
##ture
weigh
ft
consecutive
##ply
interval
hum
##ern
dq
relaxation
##xi
barre
##rc
gt
practiced
ski
xl
belly
##pu
jug
par
pv
roller
raises
stretch
waterfall
passing
across
harder
##ken
loved
##yn
poor
##tis
##lth
previously
close
##hur
explode
goin
sub
heal
heels
dat
yard
lose
ile
eu
drink
couldn
##ia
ely
beta
##git
##ej
school
##ester
lev
breathless
pumping
##ei
##tem
mad
##wing
##mes
##gat
rack
##gre
prop
70
##wg
##sis
##ice
##gn
hug
pal
##nch
cp
##lls
##eric
tau
##qua
hey
##weight
“
##uz
program
qc
##sed
stud
eng
sorry
qur
ind
mel
##rds
##most
##plate
odd
##po
hated
##uge
##uld
##hee
men
dion
##uing
##nta
##tic
thy
wake
##jal
effort
curl
biceps
##rm
lost
hk
##kes
bal
originally
arts
strained
##pur
##ode
woke
sire
fingers
##till
##ant
glass
##jm
##lot
thee
breaks
##dh
seem
won
rail
##ya
##oud
##lete
cry
pulled
##rred
trails
##mc
cheeks
fis
##nx
skin
art
##very
ones
sea
##fin
##ible
##ibe
truck
sas
qi
tis
fair
##ach
##fle
##ira
sell
flowing
##gee
##xin
sent
egg
##tch
##yer
vs
##era
nec
##pg
##oc
##ming
weekly
alt
circle
abu
##pf
ist
lou
resistance
##ek
##yu
##mos
years
match
##sti
tuesday
lay
sole
##bf
such
##cc
ama
6th
##sion
important
tense
turn
cs
huge
##tee
##ars
basic
##ired
##fat
deal
led
##av
gen
##rta
##men
##oke
nc
wwe
mall
rock
est
000
##mit
help
earlier
##ime
vin
##net
mood
initially
##nni
average
ted
pleased
amp
walks
##aid
hon
random
##lder
pp
instead
fei
##won
##ip
mach
online
mid
wii
##con
pained
pleasantly
sue
soc
##bh
quickly
fai
ymca
ore
ps
sud
wah
cam
##hey
abd
recent
jj
mx
##rry
##ack
knew
##win
##bing
##ini
def
185
##ress
##son
##ses
mat
sense
ina
##ass
##ther
ep
middle
##sle
##cing
##oga
forward
base
##ised
sleep
##oed
yd
cardiovascular
skipped
##shi
giving
born
##ido
him
##tz
##ame
##ories
simple
shake
luck
##wat
##oss
rune
##sp
environment
cult
gp
tal
##ane
nod
followed
gem
##bal
everybody
##tics
##atic
##nc
##uta
##wind
hell
##ins
basket
##hua
hold
master
##master
badminton
drenched
realize
sal
meter
dec
lp
else
believe
##met
beginning
degrees
miserable
normal
picked
rear
##lles
sprint
##ment
thirsty
tie
rain
slower
kilometer
self
longer
##eter
tell
outdoors
loop
area
productive
itself
doe
girlfriend
country
street
##erated
range
reached
24th
sam
235
##ab
##cm
##bc
food
dea
36
##ave
##uj
##ept
##rong
##sto
personal
lee
positive
mean
trembling
spp
ata
belt
pop
rm
room
swings
gonna
call
##xes
##form
##att
split
db
cow
several
sep
##bel
foe
yun
##dre
bus
dong
##hei
##gly
against
luke
##wes
weir
reasonably
movie
nic
thus
##iu
mare
care
##tted
vigorous
##right
wed
##ttle
wearing
jim
pushing
##des
target
sunday
##rat
##fc
sin
##bre
##mute
rev
rid
kill
kong
fig
rod
##dad
wc
tex
load
##rda
##ity
hog
##eb
stat
rpm
live
##sit
someone
exact
move
event
nad
##rem
beating
sis
length
##oir
sul
1000
lastly
fits
##dia
control
48
das
taking
flee
nike
cyclic
##cke
##cent
ren
##ist
wasn
pains
stay
forth
##uit
##ened
nak
hair
20th
outs
dos
##coe
##eng
gas
##yin
wanna
green
continue
approximately
hack
rally
##pw
##yas
style
7th
##uer
neck
fired
limbs
roll
stayed
##sar
##dou
##ial
pin
##oma
tc
##ece
##itch
##ire
##not
bud
flew
ek
hen
woman
##how
##nis
##ched
halt
plain
log
works
plaid
matches
hop
np
het
lai
##vor
##md
trained
bone
##ean
thai
lead
##hos
tour
##ole
takes
##zh
pan
400
##rma
##unds
##ort
##0s
##lea
um
gm
##rai
##hir
coup
##ffi
##cen
nk
cis
##cies
hips
broken
thank
activity
##oked
##gizing
nor
##ste
stroll
double
towards
rug
stress
loosened
##nally
city
shop
secondly
mer
##fen
movement
##wise
family
##iq
##org
nearby
nest
##tte
fat
enjoyable
##fm
##ler
##able
ked
everyone
##ima
##rsa
missed
soul
dai
##llet
turned
grew
28
ground
##oit
passed
person
nan
##tti
watch
##gul
hut
##oro
club
lil
##ese
reg
law
variations
##pet
wear
tai
gear
##thy
##tle
keeping
tested
stole
ks
thrusts
##vis
##ows
##sal
seemed
wan
##ral
heavier
mis
##kit
loss
##ably
##nished
burns
25th
##mmy
##ters
seriously
des
nervous
##qu
##uet
##ish
yours
##rel
##val
hai
cooling
capable
##rmin
kim
ling
cool
##ene
elbows
##tra
impressed
12th
##jit
##ech
pressing
south
##mu
ns
##del
##sau
##ake
warmth
emotionally
based
##tm
workshop
downward
##ude
black
##mbe
##yr
rv
##rus
liter
tone
##sin
##gc
leaving
##nal
##just
##lus
rib
activities
dom
##was
emotional
ape
iss
##rdy
easily
overwhelming
improve
abdomen
putting
##oes
##lee
sidewalks
bf
##ons
themselves
shortly
gall
dent
##kat
drive
##az
sight
##amina
##quet
naval
##gic
wise
fulfilling
##zi
hydro
team
vis
physical
mg
##inn
##pin
annoyed
mal
liu
usually
##yes
incredible
dvd
##uk
yards
trial
##8th
##eak
heat
brain
phi
final
player
court
ace
swan
##oz
mode
gate
##bla
months
fly
meet
##ves
pig
##air
cramped
tko
ached
##work
death
cricket
kay
extensions
managed
skate
baseball
terrifying
tied
clothes
##iff
spot
##words
neighbor
lie
expected
toe
bog
scott
witch
levels
hilly
psyche
crazy
temperature
higher
runner
motivation
##tera
performance
collapse
##oue
herd
##uted
shin
sharp
ting
races
crushed
##ph
mark
reach
easier
compared
beast
lack
engaged
single
goth
##ick
content
weather
##za
##hae
##uter
honest
##ien
##ious
800
virginia
##run
booth
##fied
prof
overwhelmed
##eli
##ening
sudden
depressed
##man
till
attempt
notice
hid
##ppa
series
##ym
eta
##ssi
site
aide
##gree
sumo
found
taxi
##jos
3a
##ibly
senior
citizen
pets
##lz
rio
##gram
follow
##cite
beer
##rist
##ona
lesson
dye
##cre
cop
write
effective
##and
peg
bae
tap
bars
lens
uses
##ier
##nets
##loe
##ali
dropped
##hid
boo
##ink
rub
##ori
find
##ats
##hak
centre
isn
reality
fry
bare
##nb
##ower
spaghetti
za
##lli
##een
exercising
tidy
##ffin
female
bells
preacher
strain
muscular
bard
lid
##media
##ray
bunch
26
count
##ast
##tal
gal
alone
dir
moe
m2
##ital
##rle
rides
##oda
##joy
logs
##ove
usl
boys
ears
hp
##side
##ffe
##tten
bei
icy
unusually
rose
stepping
##haw
rice
dirt
##ula
quivering
sap
##aks
##vent
edo
##bor
drove
satisfying
gain
surf
bear
sand
##mount
inches
##kan
##lom
##nen
quad
massive
##ished
forgot
needs
##sz
az
##vic
##ads
##ign
##dit
chess
##iate
##rro
##cb
jen
##kar
noun
##cp
##some
coming
seventeen
##nos
##nor
hanging
fide
##ov
trash
det
##bb
##ddling
##pal
usd
habit
platform
blew
fires
forever
##lun
sixteen
weary
##ation
church
##oca
hee
milo
build
##abi
##shed
knowing
##own
##lts
iona
consist
##gel
hung
firstly
##ein
mole
##cos
traditional
slept
raced
##eni
##uze
rested
anything
•
ole
experience
##nnis
##ining
##eral
##oli
miss
##irs
locked
fund
##yte
##aged
tab
phone
##iful
hans
##aint
##iel
jar
##zu
##fting
ud
tool
##end
inner
sv
##idi
cent
liv
oro
cm
##nna
##rno
dive
begin
##hall
deep
mane
shu
##ape
pit
knuckles
basement
cell
##oum
apparently
badly
ask
##aw
pad
struggled
vet
wednesday
sid
##gan
perform
2a
supper
##ush
tech
##iously
whatever
ik
##pper
neat
torn
finger
lady
##gus
##los
##tar
##tea
solid
stood
mace
##ile
##ose
##gut
wrong
##kal
brains
seats
revived
sol
fails
lim
worried
alert
upbeat
broke
halfway
lets
##thing
arrived
##oom
##oot
round
book
##rice
learning
1a
vent
moon
steppe
mike
looks
##nche
downstairs
young
restless
member
reasons
saying
hello
baby
listening
arte
thru
##gau
2015
terri
##cott
central
##dra
46
building
rare
thinking
ultimate
inspired
lazy
cho
##ids
obe
##oto
##ught
##rid
sucked
waited
##uous
cab
boss
straining
##ndo
##now
##lip
##tica
##otic
##rted
small
fen
mac
personally
##lar
lime
tate
peas
##aar
outstanding
sri
##shin
\
spa
##gue
liver
bao
tax
gan
##ils
##nds
##hay
##hea
train
tingling
jade
athlete
tad
large
practicing
##dar
##ege
wish
tyre
feed
130
proper
##eke
touch
loco
cable
others
lowe
##rca
##boy
throughout
muse
coal
##het
##gli
##aki
bout
##bau
bass
deter
##ady
gia
upstairs
focus
##fight
rc
soon
via
##yl
focusing
##kin
##une
##orio
##you
smart
##tai
##ena
##oat
dar
consistently
discomfort
hurdles
grip
##hab
ter
##ways
starter
##tier
##eem
general
cane
jung
##lan
fins
ego
dane
##nish
##urt
rotation
toned
throw
russian
##vet
kiss
wonder
##gil
##war
zee
triple
etc
vital
tires
insanity
woo
kv
season
##ener
##tet
metal
fore
grade
blog
205
##pressed
ave
pau
everton
##uca
heaviest
activated
##sse
##ade
fabulous
decline
helped
prepare
bn
bands
gained
##rug
##fia
##ska
logged
lin
sting
##rey
gone
bean
wight
##ott
##ary
military
massage
##cz
##ited
##com
rocks
stopped
ton
firth
barr
##rge
gram
##light
studio
intimidated
##ker
howe
therapy
##rien
meditation
len
##onal
##san
##ssa
poses
cook
axe
confused
mag
mar
leave
##ading
minh
ward
attack
##cin
##pen
ion
##ulu
##don
math
girls
flex
##den
lds
von
##sef
##ans
weird
##lc
pressure
bounced
sweet
32
dancer
##lish
bt
taste
taken
##mple
##nder
audio
##eld
##rte
##aga
##alo
##pled
kb
##ered
##sho
kg
##itt
##eft
rap
160
##llin
##iny
sound
nm
##rell
##fp
fia
improving
butterfly
##nde
rather
##tas
##fb
joints
dire
##eve
##lis
wood
aid
intensely
hose
prefer
boosted
##lion
##ont
##ching
jake
##ica
##aday
augmented
staying
##gned
planet
monday
bra
##sei
11th
struggle
beside
##cted
touched
things
##nty
##low
called
function
##less
wheelchair
wait
pay
jaw
horse
remember
##20
rake
##bas
leaves
regular
##nas
sides
netball
tram
##pol
##oped
frog
stadium
gardening
floors
washed
sessions
##ben
poll
gotta
curves
employee
helps
##dio
thursday
cone
ballet
camp
yoo
##np
toni
gui
2000
woods
change
##nse
forest
exciting
tall
todd
##ently
##oll
terribly
secret
practically
anti
lobe
peaceful
champ
brush
##vid
hole
ley
competitive
##hip
impact
##hole
lacking
##jon
##ctic
ankle
amount
within
##static
thousand
bursting
bigger
fk
240
eun
##pc
paddle
hate
##lor
alf
release
poole
24
##ulf
laos
sen
face
maj
extent
##ati
tna
reckon
sven
##tsu
lights
##abe
##mind
karate
roi
position
carr
##rgy
shivering
plan
static
bank
grain
simply
##pee
happening
standard
fish
valves
##tan
mas
above
nam
##wed
cd
=
glorious
##overs
nun
xx
assisted
barefoot
saturday
mick
##ind
wanting
paperwork
mw
gasping
plenty
adding
yourself
##aq
##dc
cha
wings
ribs
hang
##ize
##over
bounce
excitement
##iating
rebound
##say
stepped
font
screaming
given
climbing
##du
cindy
##head
yell
olympics
brave
throwing
relief
taekwondo
mets
torre
pines
reward
##mins
shining
rests
##athlon
joint
tender
##eon
gong
plant
entertained
aka
sidewalk
gross
tip
parents
67
limit
hire
litter
conquered
##hong
##rks
parc
##vo
##bid
bringing
alright
##ami
fields
cinder
##oric
headache
##ida
nothing
humidity
soup
shit
nonstop
aimed
##phine
completion
dragging
##block
ultra
spartan
##ahu
grateful
adventure
nintendo
switch
sprinted
fest
circulation
chances
injured
depleted
##rop
quarter
patch
##isi
filling
maxim
bala
##ror
##fers
lough
mir
send
##mun
eventually
##elle
attempts
stuck
effect
##rie
ashamed
removed
##ods
aren
##pes
issue
medicine
##tile
ron
##gong
ordered
2d
bret
##lge
killer
ruin
chemist
fear
##let
maxi
gift
packing
##laise
##agh
##br
##oper
tame
barn
##cide
##ril
mali
repeatedly
##xon
##nts
complaining
##hini
##pro
primary
##inal
rift
##mate
##rar
19
ladies
tag
dub
comments
indo
##atin
##ois
biggest
##sters
heirs
fight
##4th
risk
##nging
stick
define
highs
finding
##ox
watched
raise
##ook
##uch
##die
repetition
force
##opped
stroke
info
eighty
##lite
tin
bum
blast
maintained
losing
##iki
wards
cast
professionally
##mac
hearth
pure
##kra
##aba
competing
##rom
pouring
roads
##uber
freeze
files
jew
wheel
attend
anatomy
laughed
harley
pup
gage
##edd
lang
dirk
##pic
##pid
xu
bro
##ash
##han
ode
wrist
original
##rance
motor
##mus
rents
##ote
##sta
timing
kitty
nfc
browne
suit
rapidly
##iko
##tore
nik
shoreline
##zin
wilderness
##las
##oge
torso
weed
9th
##acy
##lter
##nae
sunny
unfortunately
jan
oath
definite
canal
##free
eton
located
visiting
##walk
##ivated
##ddy
##zon
apparent
rapid
##tres
nicely
stew
##sso
cart
uno
worst
##had
wes
humid
hired
money
relative
north
##oder
mist
unlike
happily
dave
##oton
moat
tavi
##dell
##ora
tiles
exiting
straightened
##ains
##dak
flutter
##aer
wine
mixer
closes
weave
expecting
rods
##nto
gently
##gua
emerged
##body
changes
medium
visit
goes
colton
cotton
terror
##ific
awoke
##tat
shone
##ova
rai
##eis
##oms
alla
role
bai
##ama
##fies
worry
tan
doubles
fc
tran
league
##vir
lash
zev
##nay
##zong
abe
study
spouse
teen
##nus
lasted
31
##wall
chase
hari
##iah
pia
freak
singles
##dong
ox
##icular
kun
shark
##hman
##df
##ham
waist
##test
##xide
cia
asa
strengthen
andy
serious
##udi
pep
##rage
##away
wakes
onto
##ots
pont
hart
null
zhu
ares
##chu
##sing
##rce
bloody
usa
struggles
##gles
falling
lush
aldo
fulfilled
adds
horn
recovering
balls
##ety
aj
##ping
lock
##tian
engage
surface
areas
ava
coe
poe
check
substantial
dna
##llen
mara
bull
##nik
nos
gaze
hahn
##ifice
flight
3rd
recall
excel
loaded
backpack
farther
pounding
val
##lves
18th
##ndon
husband
bags
groceries
company
finnish
paint
##rable
tata
##uce
preserve
lively
strangely
33
gum
cover
##kon
relieve
##put
stimulated
mc
##dan
kings
subdivision
apartment
trip
rained
trek
3d
thinks
longest
pac
14
##hood
surprisingly
decent
sign
##cier
king
studying
leslie
sans
talk
distracted
##uda
santa
office
reportedly
6000
##act
wished
thirst
vigorously
##rized
##rrie
particularly
pei
reduce
downtown
groin
coffee
silly
operate
##vu
##front
walker
600
rigorous
mental
upon
panting
forming
perimeter
cheered
ford
happier
conditions
falcon
tackle
##rix
##fort
achilles
joe
pleasant
scale
##cap
##tani
##pit
roughly
##wal
paul
builds
baseman
favorite
##cam
elk
bricks
elliptic
part
unstable
##obe
##iii
mm
drop
classic
elliot
noticed
waste
constantly
##iji
42
##jet
visually
##eit
brick
##bie
ultimately
##phic
toast
##lio
trim
##pps
indoors
##wad
ami
han
ars
overly
cannot
brass
hare
wrestled
##sight
##old
##mite
whom
pupils
tina
repeated
mainly
##orin
beans
dawn
##tting
##lone
##stic
loads
controlled
450
£
shelly
due
holiday
boost
nate
##wig
mice
obedience
vancouver
##rka
##wich
##ffed
promise
rubs
periodically
prey
##omi
##ices
sounds
##cko
##bin
##ider
mls
distance
except
##ople
resist
temper
58
prom
throbbing
##uma
##rmed
##minated
##vus
certain
bulk
earn
##thes
isolated
monitored
demanding
bob
##nz
##lib
owen
surviving
##44
sms
absolute
devil
##tri
interested
pulls
##lid
snatch
##ested
domes
##my
fay
destroyed
scratch
##ria
##yse
warned
parts
carefully
15th
##wee
##01
scan
pages
dose
trio
immediate
rumbling
section
twists
bwf
ying
rq
lao
##toy
tremendous
variety
##cas
##reen
##bone
##metric
vol
possibly
conducted
##rek
suicide
hardest
join
import
cf
##uso
mineral
dso
human
##46
liked
becoming
##nger
hay
consisting
vastly
testing
bach
website
##nail
rei
achieved
impression
##dic
dug
hitting
tonight
##cao
##yen
##dion
##lem
sticky
##tus
greg
afc
victory
##actic
strongest
haas
##jee
##ige
##iled
til
dome
pere
##cup
sited
mic
##qa
76
mighty
filled
pumps
opens
depth
##rah
##peed
##agi
##ghi
males
dusk
eyes
turning
stays
135
accomplishment
extended
clean
reason
##riz
volume
nutrition
##hun
attempted
key
##stis
##avi
winter
dc
mast
adi
user
vase
wedge
##eda
ahl
##idal
##xx
##cation
fife
allowed
bucket
reaching
learn
facing
gay
pak
##pressing
foreman
##wei
geo
seems
##ana
30th
alps
cote
mediation
sic
spite
difficulty
calming
fishing
##nity
reading
pga
joining
##astic
##hol
relatively
sui
##tern
heated
fail
ala
garde
system
##ates
case
##eto
##lag
gag
directly
ned
##eil
theo
flick
filming
pose
lac
##lass
fare
scene
nose
news
shaw
survive
asthma
##nic
##owe
ashes
##ela
jungle
likely
driving
##ater
haven
dared
cake
lease
##yana
##mas
adjusting
med
99
coin
##arty
##lai
##ears
##rill
##els
metabolism
grow
ray
##hort
clearly
##erie
heck
unexpectedly
ric
motive
##uro
exceptionally
rob
##ured
caps
lately
menu
acted
crying
##tens
jean
successfully
##lace
##date
photography
gunn
athletic
ding
##dle
##zing
##kur
significantly
2nd
clarity
moore
##ics
##rso
rush
##pis
bath
bedroom
##uni
##zes
herr
dail
##rent
##von
huh
thanks
map
lad
##iec
##ian
pattern
stare
##che
sly
rot
##var
##65
##rik
##gent
pieces
##eses
##vres
beau
order
elder
opt
matt
anyway
points
strait
idiot
cheek
amc
##cor
living
##uche
together
reed
##ance
sob
occasionally
olds
den
##lay
disgust
asleep
rams
dark
delighted
##orth
##nted
jong
##tung
parked
##gia
buck
london
yer
##orf
##cki
##dae
##yon
##uated
##isk
corner
cells
vera
fog
##hone
##kti
##bri
soft
##tag
uta
bears
awe
talking
##odies
suburban
aim
witnessing
nights
cue
##rne
hers
submit
##ico
##iae
waking
##ran
estate
##lev
##jou
storm
tnt
purpose
wholly
nay
##nat
##bad
##ressed
##illy
##rter
##kai
dough
##rring
attempting
jax
term
alternately
toes
opposite
ours
##aha
zoo
wig
##ums
groove
dans
bern
##ction
twisted
existed
nj
competed
cheer
competition
shower
august
dina
juno
##mina
band
parallel
moderate
swiss
##balance
electric
##iol
##ogy
##vb
##rail
covered
##len
rise
shoe
leafs
vow
pushes
dramatically
slowed
surfing
zur
discovered
jet
pas
fra
beam
firm
maintain
##nting
mix
farm
market
raked
functional
obstacle
partners
paying
surfaces
useful
elbow
##sling
dried
cleaned
farmer
##chers
##9th
##poo
##night
screen
sits
deed
##oka
##dium
##tched
guy
saber
norm
hopped
burnt
softball
snow
harding
archery
##tter
handball
105
##bble
late
amusing
cpi
typically
##nded
claws
jazz
##roup
##yd
singing
wasted
##try
##rate
##eth
##oic
##cuit
##cula
belonged
partly
helping
uss
patti
##pate
moved
##cure
dod
alto
##late
ssr
boat
##bour
altogether
ballad
inn
jace
##tec
basics
sequence
bird
bid
lau
doubt
connected
##loh
finn
seo
pinnacle
peak
mild
vest
##ense
pea
##gging
spencer
butte
nell
somehow
state
zhou
##skin
george
##oop
nevertheless
ties
scenery
precise
elevation
##vre
ridge
##ara
##ttal
muddy
dev
28th
view
dot
a1
rights
moment
wits
dig
##cting
bey
##mmer
##rth
pear
##ents
bought
storing
##ieg
hue
8th
duration
hockey
##bai
sci
38
negative
ncaa
jacket
##ams
nwa
##dal
additional
##cat
wild
snap
##rona
shooting
posting
hem
fitz
backyard
denim
shuffle
college
##bill
##thal
ads
##lty
]
coordination
yan
##ace
generally
##age
grand
lord
##neas
##ske
##dern
bingo
ages
swollen
tracked
distances
consider
type
##ium
gil
##gui
obviously
tide
##ect
##achi
chi
rag
##ced
kilometre
##efe
##ards
pasta
eden
toy
65
anxious
favourite
dock
shore
dozen
arc
anyone
##its
##vie
##lla
cove
##rip
pier
steady
gran
lip
##eer
stages
apr
##hell
damned
received
iii
cut
##hide
##ays
contents
bsc
swimmer
mps
##dden
##das
bree
##ool
brock
fold
closed
public
indeed
##zz
basis
##sher
maintaining
spade
lesser
degree
shutting
##eley
##ser
shots
kits
mack
##oris
##ump
##kling
bloc
##hers
understand
##lav
bridge
sounded
##cie
##hot
cat
cc
##izer
turing
##lal
voice
##adt
##bag
extreme
##outh
punching
somme
##time
letter
techniques
##igo
demonstrated
sports
mary
##gill
##iques
##mous
##iness
##sco
##lash
##ures
garden
fuzzy
##iring
monitor
saudi
dice
center
mob
approached
prepared
tome
##vite
dry
##mal
vie
##ens
##gf
##note
shows
sexy
choreography
frame
point
##rath
bio
gina
vic
##him
leak
##lou
coa
mr
tattoo
tremble
downloaded
apples
method
lax
leaning
gland
cycles
stab
##uin
lan
shea
bp
##ard
##gies
##sky
string
cutting
van
process
##64
tighter
##sive
##lit
lunged
weaker
##ult
pri
##rao
refer
happened
ether
reverse
guys
lawyer
##bra
##yx
##rgo
cao
liz
##sure
##zer
vertical
##chi
percent
##nding
cleared
heel
nuts
##atal
prompted
##imo
throat
outer
tore
cap
##ages
##mur
700
chilly
##jure
oder
conquer
test
assist
weakness
wilde
##hog
confidence
wide
satisfaction
achievement
groups
##dee
##pres
##itte
friendly
told
##ndi
##vius
hopeful
stated
##lock
##ros
outdoor
adam
san
kam
somebody
tournament
busy
##uls
sometimes
deeply
plays
bali
bam
summer
##una
##ruck
trough
##dro
##van
##tton
opponents
similar
##layer
##pon
opportunity
saved
##hra
doug
##kill
lean
deco
remarkable
##yle
deemed
##ahl
jp
##phi
true
momma
##tized
vc
##pie
suck
minimum
atop
east
##00
lessons
ultrasound
##lic
##pine
tastes
##link
shed
##lde
liner
##rting
tear
##hian
##tion
3000
board
actively
##rcle
lasting
younger
structured
share
mab
##vil
##usly
philosophy
pausing
como
solo
mod
shade
pat
mba
##door
cup
learned
##osh
sixty
##bah
##kus
eye
combat
marcia
mobility
cultural
tree
trunks
martial
persona
shoes
los
##gra
frozen
beyond
fighting
grey
tun
starr
256
lovers
punches
flexed
silent
weaken
##sper
either
consisted
mass
##xing
wing
buddy
none
frustrating
centuries
scored
runs
##tated
##tell
kicked
##fide
kw
fame
mori
##tees
recovered
##ici
56
frustrated
m3
##fall
huff
puff
code
conditioned
cheerleading
compete
##line
##ife
##akes
atv
apps
hotel
##unk
guo
dish
bending
##iling
dial
rich
##mbo
desperate
##cia
##gence
sake
open
c2
##tream
mistake
numerous
regret
decision
rene
tay
silence
ponds
md
toward
125
awkward
bun
jumps
##col
##ocks
##oft
##rol
ounce
##with
##wine
fran
mourning
##gos
tx
thrust
##jak
##aking
rein
##7th
##lez
heath
equal
staff
pulling
gough
##oned
tale
##hly
shuttle
jam
ropes
highest
otter
laid
ripe
crap
july
##nti
starts
cowboy
tally
rolled
dorm
cai
june
##nie
##oki
gs
##rra
##rain
ska
arrow
batter
##chev
writ
delayed
##sb
pitched
innings
surrounded
##gio
views
##nac
coil
tuck
##bil
wouldn
##chs
##ddin
infant
simultaneously
mono
circulating
##tum
improved
billion
##imeters
overcome
trouble
constant
somewhere
brutal
further
returned
embarrassed
segments
portions
considerable
romanian
dedicated
leisure
pena
##qui
##tos
canyon
biker
wonders
##leton
bikes
sandwich
defeated
inadequate
helpful
##rangle
anticipated
pokemon
shiny
giant
goals
doctor
guilty
increasing
spirits
maximum
setting
gains
armed
perhaps
aggressive
##odle
abdominal
190
endured
tenth
exhaustion
invincible
benches
##bha
lightweight
##ask
regime
chair
centered
lifeless
sensation
carrying
enjoying
tighten
cobra
lacrosse
derby
cars
##bee
bowling
##log
intending
eleven
alternating
slowing
kicks
routing
##hwa
interest
party
daughter
elevator
period
skiing
rewarded
atmosphere
rower
songs
batman
squad
elle
nylon
boulder
squash
##water
standing
##rup
facility
skating
ankles
fours
cleaning
bathroom
kitchen
