@@UNKNOWN@@
i
.
[CLS]
[SEP]
felt
and
the
my
did
a
for
##s
was
feel
"
of
it
on
just
##d
in
,
!
minutes
##t
to
tired
##e
miles
but
so
'
##y
ran
out
30
##er
##ed
##g
hour
##r
an
##l
##h
t
walked
at
w
after
workout
##k
ups
en
am
f
sore
like
very
legs
##f
l
##n
good
exhausted
are
m
$
is
s
th
up
3
push
##gi
##j
today
##zed
one
great
10
tread
2
##mill
do
##w
20
5
fe
mile
bike
##es
e
really
##x
##ly
##4
-
two
we
went
ve
now
##o
me
##ing
##q
were
ex
squat
o
weights
had
yoga
with
played
1
##m
arms
##3
more
this
#
all
st
sets
15
that
##z
y
@
al
[
##v
(
lifted
re
he
n
##c
three
50
*
&
%
^
class
as
first
gym
h
d
afterwards
##8
b
g
##b
ju
rode
j
be
not
##a
<
ti
4
leg
strong
##5
run
wo
go
ha
##st
walk
##2
r
breath
exercise
minute
##6
got
45
elliptical
some
around
100
di
min
ref
##ups
doing
x
ye
hours
’
relaxed
)
body
have
##9
##re
swam
##resh
five
##ll
press
weight
##ted
jogged
jumping
shape
morning
when
no
##7
##i
##p
bench
set
sit
half
##ve
:
about
##vi
p
hurt
##ng
##u
jack
##ated
day
ho
jo
back
little
q
too
by
fee
accomplished
laps
then
##le
muscles
you
>
##he
completed
##0
time
second
bu
hike
finished
during
weak
get
ten
work
fr
mu
##in
took
running
mo
##ce
still
hi
##gor
##ps
rep
##th
going
##ld
feeling
##ke
she
z
##bell
##lt
li
bo
##ch
dumb
better
could
wa
u
machine
##ut
fell
25
chest
##io
long
mi
ll
##te
fi
40
wind
##nd
lo
aft
##me
lifting
ni
pull
gr
ab
happy
spent
because
ne
from
basketball
ea
?
tr
##ts
##ee
##at
co
hard
tt
im
;
they
##ht
##en
ar
6
##ft
tennis
worked
##al
/
only
##lly
abs
bi
jogging
thirty
un
us
af
##rp
need
sweaty
##ea
over
##gh
used
end
##el
##fe
##on
sl
also
se
our
walking
than
much
can
made
hot
off
her
##ou
or
pu
card
four
outside
c
##gs
##ry
real
sh
energetic
ao
8
burning
##de
##mba
plank
lot
his
tha
##rs
du
even
game
while
shaky
twenty
dead
ah
would
how
##ght
##ur
mor
ja
zu
la
done
tu
ed
##ay
yo
ce
60
##ot
cl
crunch
##ees
9
bad
down
times
pumped
##ks
##ig
##hi
wi
##ty
bicycle
##ge
dr
##ck
##ring
##her
##gt
##se
##nt
##im
##ls
pool
##ti
##ven
fire
ou
again
exercises
##wl
##gg
ro
##it
pl
##dy
##lr
##wn
pre
##ct
ii
worn
video
track
every
je
dog
te
##hs
ee
lift
##red
ts
##rd
ba
mill
el
##ju
##wt
##lf
almost
##fi
arm
vo
bar
burn
##ds
training
may
tod
pr
hit
fresh
##fr
started
yet
amazing
hu
##wr
aero
energy
##et
totally
##rt
##ol
0
fun
##lift
ev
pounds
##ss
de
##je
v
##bic
stomach
##day
bit
new
com
br
lit
sw
##ws
will
ri
stationary
situ
yesterday
k
fu
last
take
ready
getting
##wd
them
le
##ms
ag
##led
if
ac
##om
ge
##ter
excited
##pl
swimming
tn
pain
sp
through
200
heavy
##od
start
ji
##is
fin
home
ot
dad
him
actually
fl
po
##ked
curls
jump
presses
goo
before
rope
full
six
neighborhood
heart
there
park
##dd
##so
##ib
##ua
##ver
tho
ad
ride
pe
pi
stair
##hila
pretty
myself
trail
feels
##rr
##pe
es
##ust
##xt
sho
##sl
each
##lu
##ho
##lo
any
##ger
free
##ef
big
ng
cycle
eve
play
hr
right
proud
feet
its
cr
##jn
ol
##rg
au
has
drained
powerful
tried
afterward
high
sq
ok
fa
ki
block
sweat
na
si
su
breathe
##we
##ln
kn
ff
ke
12
never
##ae
ta
##ally
wu
lung
dance
##out
##hil
##sg
##llo
fatigue
fir
exhaust
fast
already
##kt
man
##ne
ear
ball
##ell
##un
##sr
##ns
spin
hand
beat
##sd
##or
son
make
rr
killing
other
finish
air
whole
##hed
left
being
##ex
##be
##ir
et
##fs
##dt
ae
##ec
always
il
finally
tri
swim
kick
tough
shaking
working
knees
##ow
few
something
super
row
sure
sec
##hh
tre
ty
##us
dow
##ble
##go
ir
##ging
fur
wit
wen
##ew
##tes
ever
ga
steps
terrible
bored
##hill
da
another
sm
until
pro
nice
light
os
##ih
where
oh
way
##kr
completely
who
##rk
strength
##tt
##ai
performed
##su
sc
dd
##ri
stronger
##lk
climb
##js
jelly
keep
##sh
brisk
upper
##ning
35
##hg
##fo
dam
shoulders
since
7
healthy
pace
hurting
##id
sweating
sr
##cs
stairs
breathing
which
less
##ute
##ic
##sy
##dr
##hat
session
##oy
##lb
well
lt
##ged
##med
##ent
once
wei
##ul
act
ci
nu
relax
##ro
suddenly
your
seconds
barely
##cise
straight
fine
##rated
##ar
##rl
km
difficult
calves
mk
ca
##ill
warm
extremely
als
##li
most
##way
these
##ha
##mp
both
thought
vi
sha
##ca
##wa
bet
##op
aa
##km
##cer
nt
put
bed
##il
ia
sk
##box
danced
jumped
##lates
rowing
volleyball
numb
con
warmed
##use
##les
##wi
stretching
though
able
##of
##pt
top
fifteen
##hd
##our
water
place
satisfied
##ug
quite
er
ec
gi
stiff
##ud
core
butt
##if
week
here
##av
ma
##ied
saw
##og
calm
cycling
##ery
ein
##tu
ate
##ie
ak
ra
stretched
##la
##na
hundred
##rn
fitness
pressed
along
##mi
youtube
##hl
##sc
##wy
##ely
##urs
##ore
having
##oh
##gis
ua
ste
max
##eg
thighs
routine
pound
##am
ins
##xy
##rf
sf
##hen
che
muscle
limb
##di
relaxing
ml
stu
##gy
##hy
int
##hn
tomorrow
##oe
##ong
per
soo
playing
ld
shoulder
og
bag
die
ache
know
motivated
awful
##aa
##sted
easy
next
football
ai
##uld
por
plus
lake
soon
##ue
wat
lbs
##mg
look
##cy
##ah
##fer
wanted
##hes
##ting
##gn
lifts
##hit
using
vu
cu
##xi
bee
00
##to
##ded
##int
##ez
use
##an
old
##py
##uf
aching
hurts
fill
foot
climbed
afternoon
completing
friend
aw
tee
##ad
##ky
##bu
shot
eat
##his
tire
speed
same
eh
ss
##ped
##ji
fit
twice
sud
slow
see
add
men
##ime
##hus
300
##igh
don
##ple
ap
##kou
mai
noodles
think
##sel
##nl
##ith
##ni
res
those
ft
ku
intense
##rm
tin
##tin
##fa
maybe
alive
##one
##kk
ry
##ij
##ned
##ra
##cl
##sf
##rea
va
rest
red
fifty
##rer
lap
refreshing
pushed
##has
sick
rs
##ii
must
##va
sg
##pr
90
hardly
##tua
house
nl
should
bot
rd
tom
complete
##ao
##hr
ck
##rh
yu
##ers
##king
ob
tak
ch
##ak
##tly
##ey
##tf
##ming
##ub
said
##xed
##oth
##lar
##qi
bf
riding
um
##ny
soy
hungry
##ev
mw
love
step
।
##ru
##au
##pu
##yn
ing
##ner
god
##ga
sur
##ber
circuit
golf
needed
mint
their
sa
und
without
nee
##ther
ike
early
beach
away
later
best
flights
td
gee
##dl
##bl
ago
floor
wr
##ckle
fall
##min
painful
##lp
av
why
##rou
terrific
yes
dizzy
evening
qui
##bo
##ma
##mt
weighs
##ten
mostly
war
em
##nu
sometimes
want
kettle
ic
mig
##oi
op
##hp
probably
sam
ham
tight
##fk
##ful
normally
tb
##est
sar
##pd
##da
hands
##vs
sad
yi
##oun
rig
##ok
##ob
##mo
##sa
pump
fat
hear
##con
pp
sat
rec
##bt
##rst
daily
##nut
intensity
##wo
foe
##bs
mil
jin
mon
dh
nearly
##ye
##pm
everyone
##iv
##ci
##rai
buy
##fu
##aj
##up
power
usually
##eh
toni
soccer
skipping
stopping
absolutely
often
##oo
om
rum
shi
kilometers
head
##vd
bas
forty
##no
##hing
least
##pp
what
determined
doo
hill
several
moving
##1
##pi
nature
glad
ist
##fed
quit
awesome
##po
mom
lb
##hin
raw
##nr
##ating
##iy
##ret
inside
##ep
challenging
hk
dt
##yt
##ree
mat
damn
##os
ana
dl
##ix
##dh
biceps
##ung
people
##ward
##ja
overall
##gb
##ka
##mme
seemed
##ys
##cle
acc
gu
##em
although
ka
bud
hs
##nc
##fl
ser
##oa
##ive
fk
##rta
##cu
practice
xl
##yed
ski
met
incline
##del
##gai
##ugh
##ight
flexible
wonderful
pick
chin
boxing
been
river
##ass
75
hills
race
looked
##ere
knee
starting
endurance
##get
##dm
far
##how
physically
own
blocks
##cr
mini
challenged
kept
incredibly
doin
##ome
##ag
tad
hut
##hey
##md
hat
many
ib
form
##most
##3d
##rin
##zy
##ies
rate
sim
try
lee
thou
twelve
bare
fucking
kinda
##lled
gp
wow
##bbly
##for
hz
makes
##ete
##able
quick
rock
##nin
sd
confident
year
rev
cy
##ess
hen
000
##co
##ac
##zh
##eb
##bi
##mos
eel
18
days
star
couple
ow
definitely
ale
##hic
making
##ff
awake
night
ya
##sk
##ax
##lm
machines
eli
##qu
together
##nh
cross
ko
##fy
##nk
stretches
barre
group
##gged
friends
##ball
usual
might
calf
##ness
short
dying
gt
##ough
road
##ya
store
hey
ama
sun
meters
##cus
##af
##ta
faster
hop
low
##aus
intervals
slowly
breathless
ct
##ren
##git
##het
aba
##nes
rough
##iz
500
everything
##tter
ip
##wu
thigh
##nds
##vy
##iny
##gut
weighted
years
eight
jun
against
##ox
॥
##jk
##ges
slightly
strained
fed
tv
vin
stretch
quickly
##hem
eye
##ko
balance
nine
life
cold
goal
realized
bal
13
io
bk
cool
##lke
jj
nap
give
mn
immediately
small
thy
attended
##bly
55
22
move
wai
ice
everyday
tel
##ion
##uw
led
##ze
trying
##ide
##ure
##sed
##ead
qi
nw
##wer
lighter
regularly
aye
##wk
break
mad
ph
##fin
pass
##men
##ip
##ping
##kin
enjoyed
course
tim
mind
##com
ked
##sp
##jm
ben
ut
##ptic
##tel
ps
extra
##wing
##jing
##uts
##rly
headed
web
han
burns
xi
games
ban
dip
participated
practiced
##zd
##mb
hoop
##ine
dancing
mountain
volley
seven
past
spend
gives
##amp
field
wiped
racing
##as
rf
##res
local
##ape
performing
eu
dec
relieved
ms
##ain
hope
##und
near
began
##si
train
tor
##sef
record
nat
gut
ass
##ase
pains
##cks
rid
##ttle
stand
empowered
sumo
sy
##dden
tie
##fen
##ets
##hu
worth
##ying
decided
225
thin
bell
ns
##haus
##kki
mm
vr
hug
hp
##sin
##ound
fantastic
especially
biking
ant
##uet
okay
somewhat
became
say
entire
##oj
##rre
##ady
##ku
wal
hiking
##ired
dan
rv
der
gets
##vic
under
earlier
##uj
##zi
##fly
##ia
hers
##era
##jo
mp
mine
sas
tow
##ull
mph
table
enjoy
##tr
##tic
yoo
##mm
hq
##ton
##ik
tense
shu
##oll
##cam
##ba
let
##oin
##wed
del
stop
onto
##wen
lu
comfortable
tea
double
lost
mr
fig
lunch
##gen
holes
##uy
4th
doi
##um
boot
peace
won
came
lp
music
job
##ost
cal
sleep
trainer
col
les
##sal
rows
wear
##vin
ali
rubber
rounds
lower
amp
##nig
##vr
##uo
##ole
ann
basket
boxed
catch
area
productive
##uh
explode
active
picked
##vu
##kat
harder
school
##ibe
lungs
miserable
##sm
##ous
##jou
horrible
##nn
blood
##nb
##fted
cha
wb
##rating
##wc
sic
##war
killed
ring
slug
sole
read
##qua
##ki
alt
##omp
mx
inc
##ily
personal
rt
within
stopped
struggling
80
self
weeks
##mis
except
##rth
ep
##ial
##gm
room
constantly
burned
##ling
cw
##tl
mal
##cic
##ml
##unt
##ues
watching
##rong
##ding
lai
##aw
curled
watch
##ira
##rey
station
nod
ter
##by
##yi
din
across
##uti
exercised
someone
##cies
spinning
bout
north
##lot
##ose
resistance
##yas
bea
total
path
cs
whatever
pd
heal
##ode
lin
##der
soul
##iu
sea
milk
##zin
aj
wet
##ard
##wg
worm
apr
##ste
##inn
team
150
##ui
##ppy
##lle
##dad
##act
##hre
thee
dat
instantly
wee
pg
ain
thinking
nile
pt
16
##ush
##cc
car
ang
including
gas
vet
ill
##ntly
sound
boring
##uit
feed
enjoyable
##ley
herself
loose
help
##han
eng
mean
wait
##pf
##xing
close
ru
solid
menu
##ek
consecutive
##ving
nk
##ele
weightlifting
##hc
dir
##nto
##que
##uc
rn
increase
##ity
interval
into
instead
120
relaxation
##wat
ur
##thi
flexibility
climbing
skipped
##cing
art
ds
forward
loss
raises
##np
passing
skip
##ced
ached
held
hold
kind
master
adrenaline
longer
sprint
ze
##mat
beg
world
beginning
marathon
bt
##erated
hood
meter
##tre
nothing
loved
##say
clear
lack
doe
thirsty
##oes
##nni
none
##met
stressed
street
##vel
##ence
wan
performance
##df
injured
##mx
##ces
los
##ich
called
ax
degrees
bro
kill
lea
##sz
##uck
overwhelmed
vol
25th
##sto
##uing
fails
stay
##row
ely
##eal
focused
rally
gave
##ress
rack
wall
side
bs
enough
##ux
##kes
bsc
##bing
70
non
##yo
15th
##cm
##actic
##nally
whenever
owe
250
learn
obe
show
stayed
##ise
##pg
##uta
##tee
cn
##let
muscular
older
##een
bn
bunch
fide
curly
##eral
round
curl
stil
weigh
watched
stuff
forgot
ny
joe
ara
##lok
gin
failure
##pin
gen
rather
##eti
cap
such
needs
rod
##ort
##den
cyclic
beating
##rew
covered
##zer
##ave
approximately
##ati
level
lil
tide
½
vs
pa
##aly
nad
liv
##oon
bus
tour
forth
mt
black
##ually
##rge
##roud
30th
##mu
wasn
##rat
##mer
##tion
cove
knew
foul
##ite
##0s
kicked
##uth
##tron
##yu
hair
##gc
##tc
tan
cp
hon
##ount
##bis
nr
##rts
##ov
gel
fan
##not
tia
flee
##zing
##tty
cut
##9th
##sb
anymore
##ult
##ock
lok
##val
##san
trial
dogs
health
joy
movement
##lc
fully
steppe
##00
##dp
building
ks
##rdy
##ish
broke
loosened
##dra
##ica
simply
##ile
reel
wil
##oked
thus
nor
##gizing
id
##fm
mood
##rry
##cal
##xa
##lal
stupid
mac
##eth
##ear
##gga
¹
⁄
₂
lucky
var
sin
nervous
fly
def
##dio
flex
##oss
lie
##gly
##rel
##ei
##lder
utterly
style
##eed
cas
helped
##omo
##lth
actual
##ment
rc
sts
ui
jp
bye
##sion
med
part
##all
however
call
##ried
seem
ton
player
jug
shake
##ved
wise
paying
##jos
##bal
tram
roller
chair
##per
cam
hell
##wad
pal
##des
##hua
##master
badminton
geo
rowe
cricket
kay
extensions
##uted
yard
lose
honestly
##words
mud
town
##nte
alright
prof
different
neighbor
##tch
country
dry
else
##and
mit
800
##ab
heels
toe
indoor
thing
mark
rarely
tier
vine
qu
poor
increased
between
##ate
bay
shit
##long
literally
tame
seriously
yell
##ink
million
slower
##ins
food
crazy
higher
normal
excellent
shin
yards
terri
ore
##lty
##lete
##son
foo
##tz
medicine
wii
following
##wes
##vio
win
##ening
##ken
##nder
##oped
split
trembling
##uz
##ind
boo
##bf
##qui
##hei
sen
##gle
sex
beer
##mal
senior
dj
tq
abd
safe
##oda
##rug
found
pow
kan
books
##som
##sau
##ame
ley
##mum
##ond
hated
##till
violently
##sis
log
effort
##atic
classes
certain
typically
alarm
showed
exercising
##ire
que
rm
parts
dee
##vo
tore
##att
filled
##sic
##meo
heavier
##ching
torso
truly
sometime
damned
trails
rail
##ool
nic
dod
exact
kid
##yat
##une
bile
##umb
##rz
##nge
##eda
##ized
##ots
##aid
##cke
wc
terribly
become
length
##ick
##iver
lens
bikes
bis
care
fairly
rpm
##oot
##ack
sb
##ap
roc
##kle
##iss
##ser
tao
##uge
##run
qc
prep
eden
##jer
##ast
##nal
flow
strange
things
##ible
##lor
##ect
iss
pedal
coming
kun
##ary
ally
##ster
hal
anything
##tem
app
sal
teams
##gies
heard
tonight
mis
##win
woke
net
##tti
##nch
##ein
lay
nave
##nis
##nde
##tiv
##iol
sub
phone
##oud
##ons
##oke
##dly
struggled
matches
tear
##lls
##ffi
##ics
pants
woo
##ern
wake
het
shack
sitting
bat
##tet
sol
others
usa
ky
position
pri
ul
cd
kw
##acy
alla
goin
begin
##iq
##lun
cramped
##ways
mode
looks
##ail
##gu
anyway
##yes
nov
environment
otherwise
kids
stroll
mall
miss
walks
saying
live
quiet
goddamn
##ais
14
##sw
stress
##tal
trained
##shed
gold
flight
gust
cars
wta
rex
mab
wore
##yer
##gel
##ened
pleased
easily
sucked
dail
progress
talk
lead
##dc
further
neal
6th
##lip
##pel
##rked
pained
##nce
##ical
##ede
##az
##vir
##oga
mas
1st
incredible
forever
##non
##bin
ground
barefoot
pulled
general
hip
bitter
joo
##bil
##ali
gene
karate
grip
belt
wes
##rte
remember
##ays
##ron
keeping
##ves
ud
kg
previous
##lee
##nti
staying
bid
math
##hall
rat
lots
physical
##sse
toned
sounds
##rti
##mmy
buck
##che
outs
nak
##tan
kin
plan
##rac
##gf
healing
##cent
##itt
given
chester
sep
##yte
fort
precious
hitting
##ene
##7th
belle
successfully
gear
sense
tab
20th
##hue
##xx
based
##ards
##sco
greet
##ake
np
lax
##light
##eak
basic
##mas
flu
##mes
throwing
##wall
##ater
challenge
tree
activities
##aking
huge
event
##side
160
thumbs
##tur
dome
bp
mir
setting
##ories
obstacle
struggle
##gre
##imi
reality
lim
prefer
alone
cho
drive
ware
average
slept
hall
##tics
xu
followed
curves
cia
##sch
##za
glass
tal
amount
mel
front
age
##joy
continue
court
gem
sai
uc
##pw
##less
##esh
##ppe
pau
tap
##zz
hang
jam
blue
##arte
standard
giving
##zes
bun
opponents
weaken
##overs
managed
month
skate
baseball
ting
kilometres
##rted
wandering
reach
sharp
##ines
expected
mike
virginia
##tis
##mist
##ius
shining
##lling
##tea
drenched
believe
##mins
spot
psyche
nonstop
outdoors
##gil
hilly
girlfriend
compared
mara
kilometer
collapse
reached
easier
tied
sweet
skin
paul
##ched
beast
fight
##oms
##top
##ars
tip
loop
dragging
##hly
lou
##els
cat
pumping
adventure
engaged
##ami
itself
##do
drink
##lin
235
ark
##ppa
##wise
cards
##oc
attempt
tiny
##sty
##mbe
honest
##ergy
cone
bwf
insane
dies
nj
pere
fei
##fat
font
ala
tastes
mod
##pre
ray
##cas
ie
##eta
jason
hd
stitches
##tie
##cco
wig
frog
##wil
##yle
citizen
##ats
ina
rare
uncomfortable
##tle
##weight
##dre
gate
ask
pic
awe
approx
db
grabbed
est
spaghetti
program
##ept
prop
##rie
awkward
fist
cult
points
##rain
bel
strain
##wai
cook
james
##rle
##uch
shooting
##rter
mont
##hri
##tier
pushing
##lite
##rb
seats
thai
##tte
grey
repetition
vigorous
##gl
##ols
hole
inch
##fort
exactly
##rol
rise
##rna
dirty
dane
terror
##ific
##very
recently
months
reid
tome
halfway
club
##qa
freaking
habit
##rem
green
cheeks
cf
drag
##cis
##thing
##rned
fore
deter
maintaining
##sur
thick
##pur
mane
till
oro
come
chapter
zur
died
##ant
neck
##esa
ada
basically
difficulty
##lace
##ors
filling
certainly
build
hearing
##hole
##pis
david
asa
##art
todd
quad
##nell
guy
loud
fins
##obe
wheel
##lles
rib
##ished
##oja
line
lac
flew
##nat
control
##irs
bicycles
puck
combined
##ott
##por
cole
nike
seventeen
##rage
md
turns
alf
pat
lasted
##sat
##mit
returned
##ece
chicken
happier
worker
oder
hare
eleven
finishing
##gic
##scu
##cz
fis
plaid
##sta
generally
emerge
poe
person
luke
driving
##sir
champ
##iro
itv
##ote
match
bard
pike
falling
basement
inn
helps
tries
muse
abe
##rag
nan
waste
5th
des
soft
cues
##sus
tuesday
theo
rust
##fan
wakes
bra
bruised
overs
##ben
##eon
pan
##ese
##hee
##nall
imp
release
##rent
##nst
bull
women
##hul
limbs
nun
mere
##gur
lush
##dry
important
aldo
sum
knock
test
guys
brig
kai
##pc
##hner
##are
burt
##nen
##eme
len
hired
stood
alert
late
scar
eta
1000
target
ek
outdoor
##dan
##iel
circle
worried
restless
white
nest
taking
mental
reasons
inspired
hello
wished
boy
apartment
towards
wide
ultimate
##ler
flowing
city
flea
rained
open
hips
behind
downtown
sidewalks
beta
vie
tar
##ures
trip
central
##arm
revived
alex
relieve
arrived
pep
##ople
##tom
dal
##tive
##gia
##late
##ege
knowing
fog
##lz
initially
member
##lou
##ters
dunn
supper
homework
raced
##lio
28
grew
ones
hung
apparently
straining
##tern
land
##rad
beautiful
ron
indoors
metric
bricks
adam
##dha
rune
hee
passed
##ech
##ier
rose
reg
##cie
ava
##uous
##var
sessions
lau
route
lip
mach
##oz
tko
mer
eds
thrusts
fest
hurdles
armed
##uder
join
send
##fp
nur
ribs
##own
tx
##real
shirt
##pro
##lub
##aday
mb
cause
personally
fifth
##eni
coa
##uk
decision
focusing
pulls
##fra
pei
earn
smart
dun
bei
due
pleasantly
tingling
##fight
rake
det
usc
jade
##mir
##cous
regular
##hrer
face
cup
moe
fia
mag
rotation
recorded
stole
brush
fife
##pen
eyes
find
meet
##far
##hak
##my
zoo
cooling
tremendous
capable
##ici
##yse
chan
135
military
emotion
elbows
##cb
##sing
205
heaviest
##rdi
moor
pont
dil
vow
cbe
bully
nutrition
pressing
impressed
sleeping
mount
nc
##rring
##sar
185
##mple
neat
rey
didn
perfectly
nut
##nne
cannot
##tar
tau
rei
uno
bucket
era
thor
rom
##kh
sv
system
downward
facing
mid
##ask
##ever
##ej
poses
mae
missed
heated
##rien
adjusting
cell
3a
##rmed
middle
##hai
##sti
therapy
##ctic
pac
breaths
##dee
special
momentarily
lets
calming
##lad
practicing
##eld
fx
bounced
minh
ymca
dancer
taken
##hab
broken
dans
##ease
human
fours
history
butterfly
abdomen
kissed
##ente
nyc
##cht
fuck
site
truck
improve
ono
nec
bach
##dal
##ris
##ddle
sis
seat
roughly
##sol
date
either
witnessing
iii
massive
nearby
bathroom
augmented
##ipe
ras
stops
##hay
##end
##lla
shortly
tae
boosted
##du
##ffer
rested
dave
##jal
starr
continuously
yd
groove
##cd
bowling
competed
cheer
useful
##rar
term
frs
##xin
cleaned
stadium
##lea
snow
##sho
tai
farm
partners
gardening
wheelchair
shower
##pol
##amina
bao
leaves
moderate
band
wash
fulfilling
mighty
amazingly
dev
##nished
gm
seen
annoyed
##ably
eternity
##nton
##ious
positive
##nz
moment
altogether
gig
ballet
camp
chemistry
##ove
##ited
woods
##wind
peak
peaceful
las
##olo
kilometre
##eo
jae
forest
secret
##ili
dent
absolute
bigger
##dit
heel
gus
change
sent
coordination
pak
##bai
##ske
##key
matt
dirt
##lay
ping
lacking
san
##gie
gs
tournament
soc
traditional
##ently
acre
threw
gb
##water
hate
arc
weekend
##gau
##mind
##rip
steady
##ule
tell
law
##time
deeply
pop
##bh
cc
thousand
sexy
stuck
waiting
##llen
giant
overcome
##idi
obviously
occasionally
ash
##nda
garden
##pres
##cen
##hm
tone
clearly
##ood
choreography
shivering
static
tighter
minimum
dos
ling
mold
miner
##iva
ind
duc
##mute
deep
##ord
badly
achievement
assisted
gained
=
##bla
val
pia
ours
similar
48
##cut
german
wanting
individual
hoping
pad
##ige
fish
adding
##work
50th
trunks
excitement
wings
third
ankles
roi
death
scored
sox
dvd
rebound
impact
huff
luc
bae
puff
##ice
##pee
jumps
##gee
squash
cindy
##head
grain
infant
simultaneously
##har
relief
taekwondo
depleted
aka
limit
headache
lev
somehow
gradually
##vered
gross
##phine
conquered
##jet
##ahu
shitty
levels
entertained
##block
plant
weather
humidity
soup
couldn
quicker
remaining
grateful
clothes
joint
tender
fields
sidewalk
sprinted
##rang
##ike
university
tres
tung
lessons
yours
realize
circulation
chances
completion
rests
pumpkin
eun
ultra
spartan
content
mg
aimed
zinc
parents
##ph
##oric
##athlon
67
terrifying
crushed
cinder
torre
pines
parc
##rath
threatening
##ign
slip
##bn
quarter
patch
nintendo
switch
##rder
temperature
reward
runner
pitted
owes
crew
##lter
##onte
separate
susan
##rber
##hta
##gal
treat
fox
courses
oct
gan
remembered
attempts
amounts
cart
fingers
##oro
##sam
lightning
screw
##sight
##rling
##iled
feathers
swat
uss
effective
boots
bog
rick
ultimately
boys
bug
##rek
jerry
##oper
##nor
business
freezing
cad
preferred
##icio
taxi
hum
paces
eine
killer
snack
issue
rings
digging
jay
##rave
##ham
merely
swings
michael
ashamed
dq
lew
##ndo
snap
frozen
##zan
beats
bent
##due
##mide
##nad
additional
formed
weighing
bloc
grape
1a
sui
##ette
meng
kinds
stroke
##ford
movies
##ulf
##ffy
ion
##br
unfortunate
bodies
eighty
quietly
##dhi
loosen
##ura
sighs
growing
boards
##rled
preacher
phi
dim
gray
dawn
##db
drove
##los
mole
epilogue
thankful
motorcycle
##cap
##ual
attend
retreated
##rize
##lom
23
npr
hearth
##dis
planning
shoe
pissed
tray
##tain
##nee
cary
sinking
files
hunt
stories
atv
##ath
jonathan
ford
bin
##ital
rapidly
satisfying
strictly
hai
heir
whipped
windy
##iful
##bit
##ured
##man
shoreline
flutter
##yk
silver
medium
##oca
selling
##hot
rafe
reading
##cked
canal
##free
breaks
diary
obvious
##dge
##uber
rides
straightened
borrowed
##lia
##wife
deal
graceful
##dic
dc
##rail
##old
##sper
surely
##xide
##hdi
cry
##ross
##cp
##ook
appears
weekly
##tten
##vb
teen
viking
caf
slid
link
serious
sins
##ude
coughing
##body
considerably
##lum
##ths
slim
harley
##walk
charlie
ridden
##etti
shen
sundays
wight
##ssed
flipped
fewer
dozen
pay
##bula
mma
##bb
easter
quivering
##ona
tanks
west
newt
peg
treatment
##pped
fake
loves
##tura
chains
##ided
bai
##ddling
ways
numbers
write
anybody
##tation
##ores
male
##rid
spp
elijah
range
naked
##ester
nick
##fide
##nish
lawyer
unfortunately
wages
blew
doubles
brothers
map
tina
george
spouse
nobody
##itive
##nus
##nnis
officially
jaw
singles
avery
cai
ding
tuna
studied
opted
##yp
stones
shift
atm
##ban
fortunately
katie
legal
lovers
hence
pun
##tions
##bed
tasks
##iae
react
task
##roll
ebert
knuckles
bow
finger
sid
greg
moves
##ini
##hea
chloe
meetings
##lid
##ined
loki
marks
guess
33
##isi
drew
anal
##itic
equations
##iner
luna
##oni
brother
remotely
ich
frequently
##rom
spa
plaster
ceiling
cid
lime
does
zhu
##rrow
##hips
thumb
mack
mbe
##hear
##shu
zombie
uh
mage
torn
jerk
offs
struggles
##para
pretending
fulfilled
##uls
series
cover
ric
##rma
key
attempted
##bc
duff
turn
##ings
peas
upbeat
##kim
thoughts
skater
trek
wearing
loaded
backpack
brains
nos
von
lively
mc
kings
reportedly
##kill
subdivision
husband
falcon
achilles
##lak
##turn
surprisingly
secondly
stimulated
dante
buying
tate
pleasant
vigorously
reduce
rice
sunday
walker
beside
##front
perfect
answered
farther
sixteen
fees
recovery
##qual
locked
##gall
11
saturday
suns
##gr
bags
groceries
lobe
longest
600
rigorous
duck
fishing
jed
##uca
hog
3rd
##llet
perimeter
cheered
tackle
##lie
##wig
thru
insisting
##ior
book
ata
til
##tracted
company
familiar
##uil
preserve
6000
##lone
##dom
forming
ram
##gate
silly
operate
agreed
##ael
plea
family
distracted
leslie
sans
listening
##him
##lei
downstairs
young
stump
enter
##usa
guest
##ions
##mere
##imate
sul
##dam
niece
restaurant
bridge
##uding
ape
liner
board
proved
landing
clean
##sund
##bine
nay
builds
cent
tapping
##kon
indo
elliptic
avoided
##ties
random
travel
below
boss
hull
kidding
greed
outstanding
tape
willingly
##tto
##iot
##icz
##zhi
crossing
flushed
gran
unstable
wasted
##pit
##mei
weir
empty
##lat
final
ida
##down
cfa
july
##ndi
sven
exam
carefully
highly
kite
grand
##bling
risk
##gers
earned
tested
##rix
##kis
march
uneven
bars
interested
discomfort
bells
rodeo
limited
wrap
##oat
heavily
theme
uniform
##uce
kam
175
ponds
##loe
##fully
tam
dame
liked
##itte
vic
##elt
seeing
answer
mildly
##vid
losing
drinking
firstly
##ios
box
##fles
##ara
fires
athlete
##ears
##eri
thanks
##rno
repeating
prom
##ean
fai
fearless
trials
loft
zane
kate
##bate
##zon
throbbing
promise
isolated
##rret
##nded
learned
emphasis
paced
##hel
monitored
via
demanding
##hong
！
variations
snatch
cable
upstairs
focus
holiday
##put
strikes
ignore
overhead
lips
dion
aiden
##inate
hack
bala
##aine
speeches
repeated
wrestled
showing
becoming
##yen
rim
scream
coup
differ
yer
##dou
##ril
##ioned
##iste
load
130
proper
controlled
loch
biggest
##aco
##gni
tick
##nche
##gus
begun
##rbin
afraid
impress
twist
stitch
impression
##nant
rites
true
##ama
##ining
destroyed
##gard
##rak
##ches
lowe
wwe
verge
gina
solo
##ates
throw
ridiculous
′
choking
whig
cloth
online
##ops
believed
##ism
##pts
teeth
russian
twists
suicide
hardest
lille
##iti
##media
cape
##rc
##vant
##tting
insanity
vital
raf
##iate
info
##una
natural
##iza
##bet
##ysis
##metric
variety
receive
##tric
breakers
nate
registered
rann
##dek
tran
versus
##rice
##agi
bucks
beaten
decline
prepare
##tat
##42
##ncia
sting
activated
cheat
wax
##fire
pounded
storm
##lain
papa
counts
##antly
achieved
##lash
tons
spring
fond
flat
##wal
##mates
manual
##atal
rap
stan
check
dell
ryan
##ato
gia
##aling
##aks
##nna
##hol
addiction
volume
swallowed
fought
gone
##pressed
admitted
accomplishment
fits
weighed
van
gotten
bam
##nding
eaten
cheated
bend
mare
##nger
##ffed
thankfully
skill
haas
encouraged
someday
sobs
##fting
pm
##dev
required
gun
elbow
##uven
##ische
##tary
##aga
##oue
emergency
##ram
allowed
mediation
bob
##lga
##gp
ming
testosterone
clad
devi
##ners
tissue
maj
mentally
considered
##ense
##tyle
##ana
unusual
horribly
inter
fled
workshop
computer
9th
reaching
##lts
cb
fabulous
17
##xie
confused
##uki
extreme
initiating
leaving
##jan
hind
dollar
##bid
##riding
emotionally
##ses
##tters
##cos
rot
##uri
##yana
##kar
intimidated
gladly
warmth
winter
clade
##tta
hay
motion
sir
##jana
cents
tasked
##its
cast
pose
##sei
tuck
spite
delicious
##ony
ahead
##las
current
audio
##shi
walt
##oman
##zic
gal
earth
punt
stool
carl
##zee
##nic
87
bedroom
triad
leaned
cue
edge
##dell
##ian
laos
pressure
##set
athletic
cans
##xes
##rran
cis
traction
##yah
settled
lasting
woman
##mpt
partially
cared
##bas
##uche
joints
##vers
##tou
##yin
##rys
overwhelming
improving
##cene
##ichi
##fect
##tial
enthusiasm
##car
##ota
blocked
mum
code
olds
##uve
cake
raised
starter
##ours
qur
loving
chamber
unable
recent
##uid
##rva
##lta
living
mater
##xon
adds
a2
luther
pulling
cree
##dle
spotting
##iring
disgust
dish
alongside
##rmi
##alo
marcus
ari
cure
24
hungary
student
sued
##berg
qb
frantic
trough
locker
guests
estate
##vere
##kus
ken
purpose
##lane
meg
rush
liu
dinner
crust
stumbling
##orf
ward
according
##ono
vh1
##yr
intensely
delighted
dodd
rich
paws
arena
##vent
cardiovascular
metre
##arty
##unk
##nets
##ught
hem
wondered
asleep
##yan
yeast
goes
##gram
ronnie
students
sudden
parked
tool
opening
qin
eliza
rug
learning
latest
•
doors
##gned
##ressed
##sure
##von
##cel
males
wherever
ile
wandered
casual
summer
ix
##fied
dear
corner
##erly
esa
emotions
alternately
touched
toes
opposite
twisted
##ction
adjust
elk
function
##rton
##nea
barr
beyond
norm
handball
favorite
hopped
burnt
##bron
##aves
##vat
manage
balls
beam
firm
maintain
competition
functional
lectures
hove
##urse
tours
disk
bone
##chers
saber
compete
jul
##avi
##uter
academic
sides
existed
##cha
excelled
witch
norfolk
fda
##20
pushes
dramatically
slowed
hydro
##nas
simple
thomas
##oit
##quet
softball
naval
base
##chi
kara
college
brightly
indeed
sparkling
surfing
archery
##ngo
severe
reasonably
raked
##arat
##rance
sticky
maneuver
dei
motive
##ety
typical
farmer
injuries
swiss
##balance
parallel
netball
trier
##orio
born
minus
##plate
ami
sits
gang
overly
josh
jazz
tanya
##ett
marking
community
employee
disgusting
extraordinary
success
pets
pole
robert
##pper
unusually
cpu
##aca
##vius
##ads
##kot
campus
intern
boat
lal
##tens
sited
studying
##chel
##vite
suite
##gol
automatically
brad
sire
pinnacle
##cted
scenery
moi
lookout
exciting
##low
suggested
luck
connected
##sts
pea
tori
vest
##gul
##dae
wah
tack
##rita
##avs
nz
##ture
faintly
##pse
##oft
cavern
flesh
##bie
##elis
quote
impromptu
\
##kind
spencer
butte
experience
storey
gora
goa
chang
mountains
creating
ridge
bill
waterfall
mild
eton
recreational
##mber
entertainment
##rda
##mies
##fc
cocked
37
##tery
nas
buddy
##yna
likely
##oli
##ports
##ssion
sean
##laid
shan
summers
backyard
##ssing
creative
competitive
plate
##sque
##bar
sports
hoc
##ston
rang
chi
##ker
poker
nowadays
nape
smack
shy
##bled
##bour
tracked
distances
consider
type
ankle
swollen
##laze
##lick
proudly
cubic
##hir
##bah
seek
dried
manly
shri
stone
kc
##truct
##eem
leo
jews
taste
##lim
defeating
##wire
##rzy
##cci
##oum
##tao
smelled
dig
happened
bursting
tessa
##tops
##ula
maxi
uk
##see
fm
bring
partner
##eet
fancy
##ace
dots
##oned
defaulted
##nts
##ist
240
##mming
jc
mars
dock
south
##pine
scarcely
soothing
nightmares
##static
pier
thirteen
tall
entering
##tec
lesser
extent
diving
lazy
sold
sixty
##zai
##elin
##ert
adhere
##hers
resumed
##like
acting
version
jax
##jali
##hli
##ssi
ammunition
shown
ars
##ump
##was
morgan
##lion
leaps
thank
huh
sue
##gue
packed
fey
##hor
##cycle
##ids
continuing
leap
skills
punching
##mon
imagined
gui
dung
lights
##abe
techniques
deco
mei
##tsu
prepared
wound
protesting
audi
asked
brest
garde
bearing
permanent
##cula
thicker
bought
blu
finding
studio
immensely
point
cage
belly
##hun
peer
##uni
##lon
##just
##ecin
insides
brace
tremble
winning
lia
##eration
ink
palms
##gan
claire
grow
##tra
bank
##tine
inner
cycles
##rlin
mao
conscious
##cide
##adt
goodbye
##orro
clenched
planted
##gas
drop
weaker
##rra
dude
egg
norse
##fb
fiji
shots
moon
##ply
heaving
tony
##eson
lunged
reverse
##azi
attack
movie
akin
##lit
tasted
##uated
##tors
feeding
screamed
##kel
das
##tai
airs
entirely
lan
##cin
floors
##lock
mortar
##rae
pig
700
cpi
##hine
##loh
satisfaction
sadly
dia
confidence
conquer
°
aus
protein
##eter
touch
plays
traffic
##cion
##urn
sand
##rri
##the
inches
##nse
heroes
##net
rubbed
##ised
shade
27
##6th
critical
##nism
##minated
##thed
ace
##over
£
cafe
##yon
wrists
##pet
internet
isn
stormed
##rds
remarkable
fra
questions
strokes
caste
runway
above
##vera
##ina
##ield
##etic
##chin
seth
##dder
3000
grant
fixing
##ggs
uses
##iam
##eno
return
everybody
busy
bristol
henley
paperwork
periods
##tow
remained
tna
warmer
##pled
song
macy
##mun
sailing
rights
money
pausing
##tv
oz
##ration
assessment
opt
gravity
letter
##age
gasping
technically
##bered
putin
##lusion
stadion
sci
tech
wild
actively
plenty
responsible
##ites
martial
arts
mass
theory
fail
zhou
staring
##pa
index
discouraged
##ido
dare
##osing
##ory
meant
dye
##lass
fourteen
chris
powered
mobility
##jit
pulp
eventually
cloud
flexed
dared
upwards
failing
psi
##utive
ufc
fans
##nx
main
##mc
consisted
toy
batting
plain
##via
##iating
runs
##ives
##tized
##aged
finn
##nel
##pher
loudly
##vet
recovered
stepped
monday
##ional
cao
watt
comply
precisely
##zily
checked
ears
relay
kade
conditioned
cheerleading
female
nmi
##sio
##bor
##ils
metabolic
##iche
##jon
bond
##raj
briefly
brew
numerous
regret
##rus
bird
##ingly
roaring
beds
fears
##pie
missing
weren
screaming
toward
problems
##gne
##rant
rocks
ruin
##ogo
ned
gotta
thrust
fran
##date
rein
par
wright
arte
bump
##outh
##bbe
iron
##sive
advancing
##oed
shook
##rate
amy
##hore
##bek
decidedly
worse
carry
##ym
##mack
january
rear
hockey
shuttle
ropes
walls
seo
pure
##rgy
conserve
metres
warn
sticks
cow
yep
downs
june
##boy
berry
robot
##gging
prints
supervised
##rmin
combo
##rga
cowboy
vent
##town
##ller
pitched
innings
moaned
##gin
##ash
bind
jim
tommy
dub
brave
##dler
mono
circulating
post
##par
##tum
improved
billion
##imeters
trouble
constant
throughout
somewhere
brutal
embarrassed
segments
portions
considerable
romanian
##form
dedicated
leisure
pena
##tos
canyon
biker
wonders
##leton
sandwich
defeated
inadequate
helpful
perform
heat
##rangle
carr
anticipated
pokemon
shiny
goals
doctor
guilty
large
trash
increasing
##ows
fired
spirits
maximum
gains
perhaps
aggressive
##odle
abdominal
planet
190
endured
tenth
exhaustion
motivation
invincible
benches
##pal
##bha
lightweight
nam
regime
ted
##fle
centered
lifeless
sensation
carrying
enjoying
tighten
cobra
lacrosse
derby
horse
washed
##bee
##log
practically
intending
logged
alternating
bounce
slowing
kicks
routing
bands
##hwa
interest
party
daughter
stepping
elevator
period
skiing
rewarded
atmosphere
rower
songs
batman
squad
elle
nylon
boulder
paddle
standing
##rup
facility
skating
cleaning
kitchen
