@@UNKNOWN@@
i
.
[CLS]
[SEP]
felt
and
the
my
did
a
for
##s
was
feel
it
of
on
just
##d
"
,
in
##t
!
minutes
to
tired
miles
##e
so
'
but
ran
##y
##er
out
##ed
30
##g
hour
an
##r
##l
after
walked
##h
en
at
workout
f
ups
##k
sore
like
l
t
am
w
legs
good
very
m
exhausted
are
s
##gi
##zed
$
##j
is
up
##n
push
3
today
##f
one
tread
##mill
##w
fe
20
great
bike
5
2
th
-
##x
10
me
mile
do
ve
##es
really
##4
two
went
##ly
e
##o
ex
#
now
we
were
this
squat
with
weights
##q
played
that
##m
o
(
yoga
y
1
##ing
sets
##v
arms
15
more
d
50
three
lifted
st
##z
##c
%
##a
*
re
[
class
n
##3
had
@
afterwards
^
ju
##8
gym
go
as
##5
he
al
first
&
<
r
strong
rode
wo
leg
be
walk
got
run
breath
b
##2
h
##b
around
4
exercise
ref
ye
##u
min
all
minute
100
##resh
not
45
some
doing
j
swam
##ups
p
##ng
elliptical
hours
body
relaxed
jogged
g
press
##st
##i
ho
’
shape
you
##9
##p
##6
##ll
sit
##ve
then
##7
weight
ti
back
bench
##re
hurt
##lt
hike
##vi
bu
jack
day
accomplished
by
ha
when
five
morning
half
##ated
ten
laps
muscles
during
:
have
##gor
##ted
jumping
work
running
x
little
second
##ts
get
/
di
mi
##ke
still
##in
mo
gr
##ce
fr
##le
finished
weak
jo
)
##0
>
about
going
could
took
wa
us
too
because
##he
time
un
chest
hi
ne
##ut
u
set
##ps
fee
happy
completed
basketball
no
rep
ab
better
li
##lly
z
bi
;
wind
machine
##ea
dumb
fell
feeling
real
q
40
se
##ld
af
?
##te
she
hard
##al
co
##th
from
tr
end
lifting
##ch
how
25
te
fi
or
##bell
##me
aft
##ht
##io
pl
pull
also
can
wi
mu
ja
##at
long
worked
spent
used
##ot
##ght
##nd
ba
ou
walking
again
##ks
##rp
ar
sweaty
im
need
energetic
bad
over
##ou
##on
thirty
ah
yo
##nt
jogging
abs
tennis
four
made
off
while
##gs
6
##en
##de
ride
crunch
much
sl
her
card
shaky
plank
than
##gh
twenty
hot
##gt
pu
pool
ad
they
es
only
##el
dead
ll
tha
##je
##fi
##wr
##se
##ge
##ry
sw
##fe
ro
zu
##ees
outside
##ur
lot
9
##ven
##rd
arm
fun
##fr
##et
cl
bar
even
burning
##xt
sh
##ring
##wl
getting
game
tod
je
##fs
if
pounds
c
la
du
training
our
ea
##lf
his
would
lift
ii
el
##mba
down
track
ready
##ee
done
fire
ed
pumped
##lift
##ter
tu
##is
##rt
almost
pain
amazing
##sl
ag
##wn
times
##or
exercises
lo
lit
##rs
##led
tt
##gg
##it
situ
br
through
##ged
##hs
##ft
##lo
who
##rr
##ls
k
de
dog
new
act
last
##ha
myself
na
has
##ol
##wd
v
##ty
##od
pi
pr
ao
##ms
stationary
bicycle
worn
video
tried
##ct
8
ee
mill
fresh
ni
sp
fu
actually
##jn
##her
hit
ce
sq
swimming
##ds
each
##om
##ally
before
rope
aero
##bic
totally
##ti
fa
six
##ne
sc
##hg
##dd
##li
ball
bo
heavy
neighborhood
60
energy
##ju
ge
started
park
stomach
ma
##ua
##hi
free
ac
##ust
ga
##us
few
trail
bit
ff
ta
pe
##hat
ki
12
burn
ri
put
wat
eve
presses
dance
stair
hr
whole
feet
ok
drained
con
home
high
er
200
being
heart
every
yet
##ss
##ck
##im
##ver
##red
never
##day
ra
##ig
brisk
##ho
fast
km
au
proud
##ic
pretty
soo
##ex
##llo
ev
##ro
##sh
mor
curls
ear
##tu
ty
spin
##ai
ng
barely
always
terrible
own
start
cr
sweating
##hila
po
mk
##les
##sy
ts
tough
wei
le
##sr
lung
##rk
ever
##ell
##ow
tho
##id
##tes
them
##we
ca
may
da
ot
fatigue
##fo
sr
warm
killing
##pe
super
full
0
##ir
sweat
dh
shoulders
wit
##ih
ke
tn
any
ci
als
excited
gi
##ay
jump
take
play
stretching
rowing
will
feels
tire
pre
numb
##ws
##lu
##lk
its
which
less
com
##ome
completely
dad
##be
tri
finally
##ew
performed
goo
##ys
##rf
fir
relaxing
##his
dd
##oy
##ns
steps
##dt
7
extremely
et
until
##ef
##dr
breathe
yesterday
si
nice
make
ap
fifteen
pound
quite
##nl
##ec
where
big
##rh
##cl
ya
thought
##to
well
pressed
kick
kn
don
##ar
block
##rated
something
##wt
##mi
way
afterward
exhaust
tb
##tt
fl
next
sure
lbs
##oj
dr
##wa
##mo
once
shaking
##out
ol
wu
cu
##sel
ste
these
danced
##go
there
##ting
same
##an
beat
powerful
##ul
em
stairs
##hed
tre
working
bored
fine
though
##ok
##hill
aa
light
water
vr
max
already
##fer
##la
##ie
vi
strength
another
##ib
##ked
##of
##un
hundred
cycle
keep
##hen
ji
##lates
climb
pace
ob
straight
##ky
knees
oh
difficult
right
##ill
##hil
top
breathing
##ra
##ud
##eg
both
##ad
300
##lm
ate
pa
##rn
son
##js
int
##tly
stronger
sf
jelly
##hing
hu
cycling
sm
vo
what
ing
sho
hurts
##ca
##ik
##box
##ri
since
##ute
##mg
along
away
hurting
other
##ger
most
##tl
rs
here
per
##med
suddenly
##di
##hd
##ging
##ating
nt
sur
##hl
using
use
bet
week
su
##kt
sg
ein
look
relax
upper
their
pro
volleyball
fifty
swim
see
afternoon
##ob
##ree
healthy
##lp
##wi
sick
motivated
die
house
soon
butt
##ga
os
warmed
##ny
##sd
##pt
man
ins
sec
rr
##lb
toni
kettle
think
seconds
va
routine
old
og
##ij
##cy
qui
xl
##zy
##nut
although
stiff
bas
practice
tomorrow
eel
row
##ey
enjoyed
him
saw
jumped
por
##ii
##oun
completing
##so
everyone
fei
calves
able
without
air
speed
##pl
##ble
##ung
aw
nor
ss
##kou
##ak
core
##bt
##va
thou
##ae
nearly
##cer
ec
left
needed
##ound
muscle
want
people
ai
##ue
bee
##fl
##lr
##as
##ful
fin
soccer
ae
##hh
refreshing
hand
climbed
##sf
fit
om
##esh
early
##one
ache
shot
hill
ct
easy
youtube
##all
sk
wr
awesome
session
##ru
##su
##dy
##ln
nu
hs
bed
cold
years
pump
##for
maybe
mine
lu
having
red
doin
lt
wen
##our
##ent
##fk
ko
calm
##ning
near
##hr
##ely
days
##ner
##mme
##ni
aching
golf
av
stretched
shoulder
fitness
skipping
fall
often
floor
later
inside
awful
##sic
##king
bag
##has
somehow
those
complete
##ez
meters
satisfied
##vs
##ren
##xi
terrific
glad
##ball
against
##mp
football
##fa
##ah
00
##em
##sg
thighs
rd
thy
sat
dt
##aj
nw
rig
riding
add
hq
mom
sa
##il
##ep
playing
kg
ia
confident
##ev
##gn
goal
##mt
##oin
looked
##py
sometimes
mostly
##wc
##hy
##bl
13
eli
##ping
##bo
##ba
##da
che
##no
##ved
usual
into
##af
##ming
##nin
kilometers
field
hardly
hungry
tim
different
lake
beach
##igh
knee
might
forty
ua
friend
##gis
finish
##ple
eat
far
##if
##nce
##haus
##oe
beg
lb
rec
##dl
##ten
##sed
##nh
##ste
##eb
hands
##ci
low
dow
enough
##gy
ana
noodles
stop
mt
eh
##gin
##wo
daily
sha
##ux
##ong
##co
stil
jun
ike
tight
##ff
incredible
intense
probably
rt
ur
cal
35
##pr
##cle
##ual
limb
io
year
somewhat
##sa
gust
##ling
##wy
plus
##qi
gu
##rc
everyday
qu
mp
quit
##tua
ka
sin
##hus
##fu
##oo
power
incline
##min
ben
ch
dan
lifts
dying
yi
##cs
ns
##den
hills
ak
slow
damn
ut
endurance
short
rough
##ix
##way
##use
flights
absolutely
nature
evening
soy
##ore
place
challenged
pushed
##bi
##sted
past
tea
shi
##ub
##oa
form
del
total
weighted
##rer
buy
##hes
##ber
won
##pd
##uld
challenging
mit
fur
ore
##tty
pal
##yed
mini
##fen
stu
night
mai
##del
##bbly
wanted
##era
makes
overall
foot
##ded
definitely
sud
love
let
##ery
##ug
gee
ml
ru
##ost
extra
xi
hear
ned
##um
ld
##xy
##oh
course
##rea
alive
mig
mw
##uo
volley
your
##wen
##gai
hen
##os
circuit
machines
90
awake
##cal
##ugh
job
##ptic
il
fra
became
##ine
step
ban
pass
pick
yes
##tf
starting
horrible
##sc
##hn
##ide
id
river
bot
##rg
lungs
##rou
fk
spend
##ear
local
road
harder
kill
bk
best
should
know
lap
##tr
determined
incredibly
weighs
##ete
##ion
##ley
##am
many
ham
rate
nine
weeks
##si
tonight
##vd
##dm
wall
sas
।
burned
##ike
##cu
##kr
non
alone
ic
##wk
thin
##ward
slightly
wb
##tle
tee
##vy
##up
##hu
##au
ist
ser
milk
##est
bea
jin
immediately
##cise
rid
gp
bye
sound
ass
##der
intensity
##ive
##omp
dam
##aus
##jo
mountain
stopped
##ite
##dre
car
life
match
consecutive
mat
##ers
##jk
##aw
ama
##sin
wal
##yt
peace
boring
##kk
couple
##ain
##oi
##zi
hip
weigh
rows
nec
ski
##fy
dip
##ax
flexible
stretches
wonderful
jam
dancing
sun
ny
been
race
##ko
##ies
relieved
hope
painful
##nr
##ton
dl
adrenaline
##ead
ice
##gu
ring
kept
##ave
eu
dizzy
racing
##pi
physically
web
res
##cm
##uw
gut
acc
##na
sex
found
give
thigh
def
##hic
##ac
##rl
han
bell
eventually
wet
॥
worth
##sk
empowered
event
say
war
try
##ag
rest
cut
knew
##the
mn
##ving
##rm
der
solid
ry
round
ib
##ji
tom
nl
making
##ml
##per
##cke
cy
bei
##tee
okay
bro
ill
nap
##ial
##lles
hz
several
rf
tow
##ip
##com
##urs
##inn
ang
##mos
ter
##aly
##yi
##ime
##gr
mind
##lke
sy
attended
tia
quickly
entire
kind
##vr
##ao
ds
##eh
must
forward
age
yu
bal
gets
help
ow
rock
##rds
##sw
##bs
fed
loose
##op
cross
##xing
##km
##ze
##thi
skipped
##ei
hold
god
doi
20th
friends
rowe
boxing
law
moving
wiped
##res
##war
marathon
gives
normally
blood
hair
nee
team
##ye
breathless
head
blocks
instantly
bus
performing
##tra
est
stopping
faster
slug
##og
school
mil
calf
##bly
##cb
##3d
col
net
##jer
##eal
gel
##ja
##ab
goin
##ves
##mb
move
##hua
np
ft
##iu
struggling
lil
##wu
twelve
##ckle
##how
250
##by
bin
##dden
##sis
led
under
##cc
##sm
alt
usually
mint
##ues
##ku
##oll
##fted
hat
strained
wow
aba
##iv
##ily
ked
und
##rri
##hit
trying
##ith
path
##kes
tree
##iy
##hee
##ret
##tel
##rst
##eed
quick
##uti
##ole
balance
bare
instead
18
wait
realized
##ile
##uh
throughout
55
tor
worm
##ice
##wer
gin
tin
nave
table
said
break
win
camp
fucking
##zd
##ink
test
hal
including
star
##cks
belt
wai
sar
call
comfortable
##mal
lunch
fly
kinda
ann
bs
joy
enjoy
000
eng
enjoyable
alf
music
trainer
pt
truck
##uts
##ets
held
ir
weightlifting
looking
pg
##ped
##pu
ip
ind
nat
##ass
relaxation
participated
stretch
##wat
master
however
##mer
##nb
##ways
##gged
##ppy
hiking
##xa
ph
chin
##rda
active
catch
##amp
hd
##rating
um
believe
##ssi
##gly
½
##qu
##git
clear
sprint
##met
##lin
##1
##and
least
twice
pac
##ath
hood
store
world
75
##ous
intervals
##eo
##rti
room
slowly
pd
5th
hon
focused
##jin
neal
record
trembling
mare
lower
##yer
##ia
##till
##md
##ually
##ats
stand
except
##ame
80
##und
eight
decided
##av
##son
hated
tel
##gf
solo
##ons
##rts
ono
hop
##nte
##rin
eighty
curl
wore
grip
foe
wake
fis
##jit
basically
watching
nerve
sleep
##nu
sen
biking
kids
physical
ax
read
rev
pm
##kin
##ied
rod
yoo
##ther
shu
##cr
sap
##ist
feed
##ough
##ma
##rse
literally
sd
##bh
##ta
##eter
##ult
##ach
sai
boo
##nc
ata
kb
rat
reel
##ool
bat
matches
##uid
certainly
##ush
doo
##ek
##zu
bt
##gee
tide
##oth
wig
##nds
fill
##tin
##po
sam
holes
##rid
phi
within
boot
lighter
asa
ale
taking
ep
##uf
ant
##gizing
##dra
cw
mach
##tiv
why
##kh
thrusts
que
##ett
##uc
##cd
mag
pri
headed
increase
##ka
interval
##ess
chester
##yu
##rry
##df
gen
practiced
barre
##xed
sent
cp
dee
##lea
large
flexibility
group
jug
##nk
##wed
raises
##uta
basket
box
skip
boxed
##master
extensions
jj
town
##tis
##art
meter
##ized
reach
rum
##side
fig
thing
stressed
tied
poor
##nn
seven
tip
else
loved
explode
tier
##ont
##lty
beginning
ze
##vio
compared
honestly
area
thirsty
between
yard
heels
##ness
emotionally
began
dat
nc
##xin
##fle
owe
500
##tte
##bf
program
sol
xu
##vin
sb
mm
##uing
##hin
wc
het
##iz
##nde
##yo
iss
##ays
thinking
##lee
par
ps
##most
split
##end
ara
nr
##etti
ava
fantastic
##ump
wed
threw
food
biceps
armed
curled
boy
fai
self
fired
sea
gotten
vs
wee
pedal
##uit
nj
##dry
##oma
med
##oud
##ired
##ode
##een
##dia
##shed
rose
##hm
ways
##ene
berry
##oked
seriously
##ned
spinning
##una
control
tires
##lot
##cic
kay
things
fife
##lle
restless
everything
grow
##ges
##fat
failure
beating
##att
mad
ms
ck
wasn
##yn
##mm
mike
rail
22
flow
##sit
##lc
##ari
120
resistance
##gut
hut
meet
exercised
thee
##sp
##bc
##ira
neck
hang
##sion
##lom
tyre
ark
ago
##lar
##tion
##ots
dod
tad
lay
##nis
##cus
mac
##nes
deal
cool
##dly
nod
##ej
seemed
##lled
##tre
late
mir
##rly
##zin
##tar
lai
awkward
bn
pulled
mar
##aday
##fed
gui
sad
##ding
sand
vu
wings
lea
jim
mx
##ui
fails
##ress
25th
strangely
##ught
##tial
##ki
regularly
otherwise
fat
loosened
##roud
white
initially
##gie
##cz
mood
##wise
##vo
pas
mole
walks
mer
mc
##mous
##gen
td
pleased
third
##aling
wta
outs
broken
ie
mr
lee
taste
##gre
##jm
von
rounds
##ish
##rz
ain
##gc
apr
lots
fan
focusing
ware
##fting
dai
tested
##lder
fx
los
##ron
##air
##tc
##ali
passed
##are
lab
front
##tm
percent
rubber
##nty
luck
pp
##unds
flee
burns
##ize
gt
rotation
##uet
##tter
gas
##uj
fair
150
pressure
##ech
op
##hei
bob
##ya
##san
hp
train
gm
maj
##aa
remained
bp
nic
skin
##ces
##ches
cis
challenge
une
sits
##int
##hre
##ories
beautiful
environment
##oit
struggle
##ove
called
hoop
roller
abd
##ake
##ried
together
##hak
##pp
games
came
##uk
##hos
=
badminton
mph
baseball
killed
##kee
doe
kilometer
saying
##uer
pau
longer
street
lev
excellent
realize
vic
met
asleep
dec
rv
quarter
##words
##uted
wide
fight
rug
prof
##lis
800
##erated
fully
locked
##dio
##hol
indoor
beast
couldn
country
city
##sure
vin
miserable
neighbor
##ply
gold
##tic
##cing
qi
drenched
productive
reached
increased
##oz
men
seats
young
maximum
##lie
dil
broke
##nal
flat
##sus
##ond
##able
personal
##pes
##uz
zero
stupid
fourteen
consider
##vu
born
dong
someone
##wg
##nate
##body
dome
extreme
##br
##kki
##ary
jake
##qua
##oor
225
swings
##ov
##gon
##illy
worms
kin
whose
bis
middle
##cies
cho
70
ku
rack
##put
rom
kam
seem
rare
effort
vigorous
exercising
##fly
lp
##ire
##yk
shorts
vol
alarm
##nda
pop
##8th
mean
curly
##ate
##cam
##ase
constant
##umb
thousand
north
##ati
sounds
odd
peter
mal
##zer
##nch
gear
eleven
##mu
##gau
come
rpm
simply
hai
uh
##gio
##usly
##uber
##ant
ask
##hal
station
rather
qur
trails
##tch
lens
slowed
##ched
lin
build
fastest
turned
green
cheeks
##omo
##rad
##win
seventeen
les
##oss
mild
stay
##ters
ile
pains
eternity
level
##val
##yd
##vet
finishing
straightened
hug
ron
uses
##pw
##gat
tall
hired
silly
giant
size
approximately
app
##iny
such
##uin
##het
##tor
stuff
bel
##actic
##cite
##ours
tai
reg
wing
pow
##0s
##gle
kv
lok
##fort
##dh
##nse
##ood
ling
##zh
inch
bucks
supper
freaking
nut
##ert
cm
guy
##gm
worried
rachel
turn
ted
##ind
##bu
dig
dare
50th
##wall
##ane
movement
west
nz
23
apartment
talk
##ral
nervous
building
especially
##han
##ened
ultimate
via
towards
progress
sucked
sleeping
##oc
health
##kle
mule
##dan
##ggs
tie
tak
stroll
double
54
14
ached
anyway
secondly
lear
hips
earlier
##tan
##con
ground
##ical
mae
##mps
nonetheless
##zes
curves
##chin
bay
straining
##uous
##mes
ek
facing
##just
##ure
##ese
##pit
pained
##ttle
small
aye
gan
##hli
##zzi
##uth
##oda
pleasantly
##nig
##mute
##gb
##zo
keeping
##sat
load
tran
relief
mast
##ffin
wear
watch
##fb
nam
′
hole
filling
club
##tal
wanna
means
##men
##ece
throw
##lor
differ
bf
rn
bun
##mas
##qa
##cis
style
##gur
close
elbows
ars
thrust
##shi
##hem
##ment
pad
##hall
fits
simple
##wing
imp
##nally
band
tx
##uy
mid
fins
##lok
##ffi
leave
##kar
kitchen
gave
##yas
stood
##ics
activities
##let
qc
improve
mode
living
butterfly
burnt
shake
##pf
jong
##oue
##xx
##eni
part
nearby
lal
##rle
##cin
vet
stadium
drive
##jing
##kill
learning
mon
yd
##rdi
##nx
##sau
followed
shower
wii
beam
##pol
certain
fulfilling
##cie
##less
wise
experience
##fall
finn
##lla
truly
ballet
forever
classes
##him
##ila
ala
peaceful
hell
opt
tour
passing
##bol
art
gem
lacking
court
##ady
sum
##fp
cove
karate
kicked
tone
inc
wan
plan
across
giving
assisted
3000
##ced
##rat
death
cricket
##har
managed
skate
month
performance
humidity
missing
degrees
kilometres
mark
collapse
normal
hilly
sorry
pumping
psyche
##ries
either
boys
8th
shin
shit
watt
blu
steppe
ting
##dai
##tung
lie
cn
dar
sunday
toe
tender
expected
file
##lon
pure
egg
adventure
nintendo
switch
engaged
slower
drink
hate
spec
##yle
##ph
virginia
loop
crushed
picked
lose
girlfriend
easier
outdoors
dom
sued
suspended
##des
235
didn
##top
dave
rear
knowing
mighty
attempts
dea
damned
##ook
tally
##sto
##ppa
##ack
phase
##rre
eyes
fore
land
trip
simon
##ail
huge
taxi
##not
##weight
##hly
bets
spaghetti
sing
##vered
unless
shows
beer
##uga
stan
loud
##mbe
senior
citizen
##eli
##rug
sumo
following
favorite
triple
##uce
ley
##any
prop
##rie
effective
dei
obe
initial
witch
pan
yer
dq
liv
dew
##with
##sle
db
side
strain
muscular
jill
repetition
##tro
##kat
##ster
##set
stroke
tank
pushing
##hul
ape
tv
bunch
15th
##nat
##eng
drum
smile
##bery
anti
rapidly
hey
badly
counted
bio
rocky
various
##age
din
6th
fifth
summer
##ams
##nge
fia
slit
jay
roe
cart
stole
files
##ap
thankfully
devoid
fairly
ode
##mc
##ible
##ately
##ital
##sen
cyclic
bikes
aj
11
##tain
rides
care
##free
bud
nur
usc
natural
saturday
##pur
iv
forgot
torso
habit
woke
##vic
automatically
charlie
fail
tex
##tp
##bor
bey
##ape
quad
##nel
pay
##cen
motor
geo
women
lonely
beyond
pill
vow
fear
blew
dirt
##oke
becoming
¹
⁄
₂
nike
shoe
relay
##hp
##eti
##ken
cult
##kos
alex
acted
weird
##fully
##elt
ras
##pet
##ona
fide
fog
##rring
ones
chi
nak
somme
black
##sling
biker
##bir
##uri
##hue
sounded
chair
girl
brush
##gul
##stan
grew
suck
##hid
##very
peg
##mat
##bal
length
sports
qb
eva
soc
##efe
doubles
inn
personally
sexually
##unk
##nos
noah
##ror
mis
lawn
##jou
sight
21
##ying
##shu
##zle
##itt
##ril
pair
finger
currently
##gree
pushes
##xes
las
##nded
##rro
pulls
##fin
struggles
bull
important
##aks
##oes
##sb
##yl
##ition
rolls
tense
lush
##ox
##get
bach
##ises
positive
##hea
allow
##mx
struggled
ally
moor
york
##rant
abdominal
face
follow
cab
mildly
##oed
oder
gate
uc
##ael
begin
cause
##rdy
lazy
##uen
operate
roughly
nest
mall
leslie
sans
stress
flew
1000
central
tame
gb
purpose
ren
reportedly
wil
stimulated
member
11th
##eft
kc
##sio
received
downstairs
revived
tiny
deco
wearing
log
built
regular
alert
honest
sim
surprisingly
suite
batter
##aco
##ater
dogs
mental
inspired
fort
nate
##sta
##irs
##iel
##ori
distance
asked
rm
jean
##sei
##unt
sir
circle
##ssed
flowing
##ash
arrived
##qui
##ler
anyone
farther
hack
woman
##lli
ul
##rim
success
##ige
##fc
tis
goddamn
##mit
forth
##dc
lip
##cked
bricks
##ace
tidy
##wide
nas
##tec
##oum
##eded
##oir
wheel
adjustment
##my
##oki
##ben
hog
bath
##dom
gal
elk
feeding
random
esa
powder
##lip
##dee
jan
language
monitored
wash
demanding
besides
##lete
stayed
invincible
constantly
due
athlete
repeated
##bid
variations
showing
arte
rain
##ining
bells
##adi
##kie
##fight
ric
wright
final
##lub
##do
shortly
promise
heavier
##lay
##ien
buck
smart
previous
bright
mob
##rte
waist
discomfort
##rong
##asi
wrestled
3a
general
lex
##ight
##tron
wah
board
tres
controlled
##eve
bon
lad
##ull
##orn
##iver
1st
paint
tests
##roy
awoke
online
##date
remembered
foo
line
##ose
##mmy
toned
##tat
alla
tremendous
##metric
hardest
insanity
cs
seen
cap
##ity
emotional
ali
amp
phone
perhaps
capable
military
hitting
pressing
4th
dir
##iol
185
helped
impressed
dal
kicks
ken
##kti
nutrition
sal
##ina
##fect
kit
sense
roi
##arth
bout
##jic
weir
65
told
computer
##ade
##cous
##hc
##tten
##eu
##rien
##aga
##pro
lax
downward
actively
immediate
somewhere
poses
perfect
##jos
sv
##toy
##uge
calming
heat
mouth
flex
hay
occasionally
spite
treat
##oms
therefore
##cule
##lls
gus
##tad
intimidated
ky
##hort
##asa
##mple
##say
##lga
clean
confused
##ens
##lge
##yana
##ids
nk
entered
##az
##agi
##light
liked
ymca
basic
originally
##icz
16
##hra
briefly
mel
lost
hk
months
gong
bone
##kal
liter
##rove
##vel
##ico
individual
froze
abdomen
absolute
afc
##bed
rip
dot
##tell
##ised
##hey
##rick
shooting
##nts
fred
jorge
##gging
loss
lone
beth
itv
reality
augmented
##bau
toward
delighted
wanting
tony
##low
prefer
embarrassed
runs
##vious
##vil
##iting
##ople
function
twisted
alternately
toes
##20
dramatically
##non
##amina
##quet
##sho
archery
naval
competition
partners
snow
firm
##tics
base
tram
soul
cop
hopped
raked
leaves
bing
horse
ours
fame
farmer
wheelchair
##nas
des
gardening
ada
drop
tina
##form
##fm
dark
annoyed
##uss
altogether
##pel
ui
woods
##wind
##ines
boots
trial
exciting
particular
scenery
change
##nto
butte
pic
deep
forest
epilogue
mount
million
##bing
ina
##ntly
anymore
##aged
##tek
generally
plays
adi
##bai
sort
easily
amount
type
##tip
##onal
##cter
dock
south
herd
san
##wee
bursting
##rned
arc
##static
##rip
##rel
##tao
loops
others
dail
maintaining
jax
jesus
jumps
##iti
ace
##mind
##rted
##uba
##pa
##ching
heal
##sing
require
choreography
studio
##lad
fran
##gil
cycles
##loe
tighter
##sti
flexed
standard
nan
perform
flu
mas
hid
##rix
floors
billion
ks
##tai
sole
pup
700
achievement
##tting
gained
##nti
##ida
##une
returned
##owed
opponents
##rka
average
##cta
ox
david
vent
position
rot
##za
carr
halfway
continue
##work
arts
mobility
##bin
thai
decision
##overs
excitement
tighten
！
apart
scored
dvd
jet
##idi
cheerleading
rebound
##act
regret
##pee
given
rocks
cramped
climbing
##head
##aking
30th
shuttle
places
endured
##ses
todd
throwing
trained
taekwondo
liu
67
shining
##pid
crazy
temperature
higher
plant
gunner
rann
cried
16th
ray
##cel
crash
sprinted
utc
##sily
stabbing
##llin
heaving
donkey
##mins
spot
torre
pines
##lid
##ici
##dor
##phi
motive
##won
##tti
##athlon
child
dragging
gross
patch
aimed
alright
headache
grateful
marking
mab
aka
parc
##ami
reward
levels
entertained
lack
terrifying
runner
content
brow
##oop
usa
##phine
joint
nothing
ultra
spartan
soup
weather
parents
check
##rag
sidewalk
4a
traced
limit
nonstop
sharp
##dium
##block
conquered
episode
seo
##oric
shale
tnt
clothes
itself
cinder
##ahu
circulation
chances
injured
rests
44
pavement
sts
completion
fields
depleted
hue
attempt
##rson
##llet
philosophy
##cut
overwhelmed
exceptionally
himself
ripe
brand
person
safer
dropped
kw
major
resigned
stage
ether
mergers
wes
##igo
reducing
##ntal
##mic
teeth
window
shocked
##antly
##vre
rand
##gues
9th
trap
medicine
screen
height
uno
dye
operation
dirty
walls
pole
points
##iring
underwent
##fies
anticipation
##ille
##van
choi
##tto
aqua
##yam
fighters
##rge
##feng
dell
trough
##ich
145
##ibly
ashamed
rex
##ors
stared
fought
##usa
killer
accident
pak
mont
stone
##ean
shook
##eem
tensed
march
single
medicines
issue
preacher
##lite
josh
wholly
##bei
##pse
laced
exposed
afford
ign
clock
orr
wild
##bbe
##adt
sucker
fires
##fia
sucking
facial
shots
frequently
arriving
weighing
##gic
learned
excel
##eri
##yte
pieces
beautifully
##aver
##pin
hammering
##wled
lands
actual
formerly
mitchell
savannah
jeep
##ein
##dis
chain
campus
resting
breaks
morse
##mide
49
mbe
##vus
elm
canal
pulling
##rta
forge
char
##sol
needs
ahead
bicycles
words
trout
##rce
raf
##itz
spun
gonna
fists
smiled
rice
satisfying
rubbing
ink
stuck
figured
##ddling
lore
##49
rise
sway
lets
rob
greens
weekends
bid
##yx
adam
become
##mmer
##hae
sped
likes
quivering
##ouk
route
##walk
##ever
secretly
caller
snake
farm
display
encourages
bala
##eza
##gies
medium
##sz
collective
ios
exact
dull
##real
dream
yours
rider
val
duck
##nee
somebody
coming
anything
##ncy
atop
##mpt
feat
##aid
tar
kun
400
happen
##hood
logs
##long
radiating
##nen
thrilled
speeding
kid
dev
##sco
thirteen
ying
dazed
zombie
carolina
bile
shoreline
cow
tal
adult
says
positively
pea
##ently
##ele
continually
episodes
##nor
##roi
girls
##hab
spouse
example
singles
##nne
safe
screams
song
##nie
iii
gap
rating
nobody
ribs
##jad
##ilo
chris
##uil
thor
bottom
collar
##uma
##ott
buttons
##rial
meng
screw
##gger
##eke
##dles
##ffer
darts
regis
cannot
lawyer
##bot
##alo
downs
technical
##mie
##fest
nov
##mere
##ggles
##aya
##yin
slip
button
##rred
##dal
mia
specific
falling
dry
knuckles
basement
storing
forceful
patient
kade
##rked
trademark
fulfilled
##urse
torn
null
tan
##som
##gall
##nged
drills
##wai
please
jade
ounce
cbe
pin
harding
bum
bug
alto
##uting
series
wakes
##yon
tackle
das
none
protested
reading
##eva
##thing
thru
falcon
hare
##uch
achilles
##ock
happier
relieve
book
pleasant
vibrations
target
paul
enter
rook
##achi
##mate
husband
##ins
##ingly
library
crucial
##wice
point
lived
jacket
cautiously
mg
family
distracted
##rth
regained
asking
##kled
vox
company
longest
##mber
loaded
backpack
brains
paw
rates
lois
flight
3rd
forming
pleas
hanging
upbeat
slapped
##57
happens
rigorous
walled
mainly
bb
##eca
##hire
reasons
hello
vigorously
##gl
##lese
island
rim
##vere
bloc
theo
lime
preserve
##arty
600
rained
reduce
##ates
##yse
andrew
lively
##lde
browne
shoes
##por
trek
kings
gig
ton
##front
6000
joe
downtown
cd
bags
groceries
listening
king
##iers
lds
pursuing
##hog
perimeter
cheered
subdivision
wished
hiv
walt
builds
dahl
washing
collapsed
##cious
ira
unstable
boss
elliptic
##sur
sins
watched
##chi
dodd
whispering
boarding
unlike
mic
complex
pub
circling
outstanding
loads
drawing
kelly
##bit
carried
cute
##ising
project
nay
##uze
devin
indoors
##bie
##ern
##oon
##tica
isn
##net
##vid
##gan
za
##udi
uss
coma
ole
##old
diet
sub
28
tattoo
##vir
##ora
##sop
##uter
##nger
drugs
stated
ian
##sos
##orth
##eme
##pen
extensive
bloody
maia
july
##otic
perfection
##rak
##upt
swinging
##cki
trance
##chan
##imate
sixty
glue
bore
enormous
wince
pocket
highly
fighting
##tas
##iq
##rsa
##thed
clothed
ik
dawn
holiday
technique
hopefully
number
##nine
abc
snatch
lean
tingling
##zing
sought
eyed
##cia
tasted
##rew
sic
scraped
amy
laid
##ini
themselves
##jas
limited
##lves
##fra
cushion
##chang
170
##oper
upstairs
focus
history
wine
smack
##iard
70s
dj
##sive
human
##ria
violating
empty
nevertheless
lock
hearing
tab
instructions
subtle
interested
hurdles
isolated
##you
##tled
tc
##wig
instant
##via
##rmin
##bm
xp
litre
miner
mascara
##chel
math
##hor
goes
##yes
eventual
##oid
##abi
gripped
throbbing
tome
rendered
##going
gently
##hum
wight
abu
##nding
48
cable
130
proper
weighed
moe
pronounced
continued
russian
twists
##llen
jeans
scars
warn
jen
##lez
##wil
##rom
##ype
urine
##iva
##ars
hockey
37
massage
##rmed
##kur
##mac
pitt
sobs
destroyed
dollar
##tom
luke
##ously
happily
##ture
weekend
show
##wan
##aea
smelling
variety
##tus
yarn
vital
repeat
##ran
feared
suicide
kilograms
24
##dya
gymnastics
cooling
##edd
pun
sep
blows
£
pike
##hell
ignored
throat
rap
mane
140
assigned
bai
involved
firstly
##nall
mum
direct
decline
prepare
filled
##pressed
lasts
approx
##rah
rib
##ount
hove
rubs
unit
bsc
##iste
##entes
lips
volume
165
sac
##hers
##vah
blind
reason
busted
##kla
accomplishment
stab
heaviest
##bek
##lun
##gli
##ange
##uis
##ony
##70
##tea
word
chick
205
achieved
sting
locker
gone
gun
gift
activated
anatomy
brain
##75
dani
135
defined
physics
cc
howe
writing
##hop
aug
warmth
winter
investigation
allowed
mediation
##ense
cpu
##more
alike
pose
rama
pee
emily
##mel
##mot
cone
##bana
proved
##ana
leaving
based
cha
defeat
##media
##iba
##rac
hugs
##ctic
##cp
##yp
warned
##yre
##tched
glass
##wad
difficulty
viral
tube
dunn
cole
##dant
fact
bucket
##iere
special
##fide
coup
gymnasium
##hyl
represents
chapter
ions
older
workshop
quiet
##ort
tub
envelope
##lou
##dded
outline
heated
##gga
##run
comparatively
##ham
haven
##tens
##pg
tara
##rling
college
##gled
true
particularly
thoroughly
hank
##ety
##imo
##rgy
##yst
vis
hearth
##rain
axe
##lab
silk
funny
study
breaths
ops
##elin
fabulous
##oga
pit
##eral
94
##ening
34
##arat
owed
adjusting
etc
emi
drinking
##ices
taken
elder
##gent
needing
ended
bacon
rake
bounced
##sions
##ited
mass
audio
##eld
##row
##rde
##was
skinny
bedroom
mart
winced
dancer
athletic
raj
business
lion
caught
fool
brake
meg
piece
rushing
pete
##nna
ares
tapes
hardwood
##iled
sank
agree
rae
site
liver
##alla
##gas
improving
quest
como
pere
##ished
##lia
showed
sui
storm
zip
tq
settled
overwhelming
dies
positions
corn
definite
embarrassing
##ban
##uche
desperately
trips
olds
##cor
##ray
160
guys
beds
bowled
joints
rights
conducted
##tton
sons
matt
##die
##nic
comfort
°
lobe
##nus
hopes
wish
disgust
##ghi
witnessing
##vor
lou
##eon
##mad
##iate
marshall
##lice
##ield
##oat
cardiovascular
##ege
##dge
##time
##aring
##rai
conversations
resumed
##lyn
dent
descend
##ald
##well
var
amour
quietly
silently
tear
nautical
##aby
##dent
link
larry
sheer
hoping
##lam
##orne
viz
intensely
sixteen
##zel
##ffe
fried
natalie
##rus
parked
##rks
##rage
##rey
norm
##dell
##tted
winding
zone
terribly
corner
hunter
boosted
furiously
nearest
homo
estate
##rb
##los
##olo
metal
##sia
det
interior
bao
##jak
directly
org
##inal
110
##kim
sidewalks
##nni
##ressed
##oides
foolish
touched
opposite
##oof
hugging
ion
groove
sides
subsequently
saber
missed
handball
prison
##mming
andy
partner
maintain
obstacle
paying
millions
##que
sci
frog
netball
urban
bard
useful
arched
##lev
cleaned
competed
cheer
##ois
steam
roll
##ord
surfing
wiggled
existed
##chers
functional
whether
parallel
softball
commander
pets
swiss
##balance
crow
punch
mornings
hydro
wilde
moderate
##isk
##cao
minor
##ept
eden
den
yeah
classical
mace
##ance
##pper
##ergy
claws
##late
##hore
##nation
##ural
##nished
drama
##bra
##tri
typically
employee
dans
greatly
api
jazz
##neas
##active
##lat
##oge
regeneration
##tet
nape
chose
usd
##uven
hind
##eak
sire
¼
##ark
shy
bent
1a
current
##ants
lakeside
robber
##arte
tower
secret
waterfall
trembled
##ato
apparently
spencer
bill
crawled
tens
richard
ridge
stockings
create
sect
location
spp
lever
##face
above
drinks
functions
shang
whatever
live
##ably
continuous
rub
mod
connected
vest
##sun
claire
##rrow
##rem
holding
pinnacle
peak
len
##cci
user
declare
##eil
huh
works
lau
##thal
tail
##sible
competitive
backyard
poker
does
##ili
america
slept
plate
basque
##ede
bass
##ored
john
##hon
player
phoenix
##du
coordination
stars
##leg
champ
recently
usl
buys
##sie
rune
##rut
buddy
ceo
vertical
tracked
distances
traditional
ankle
swollen
grade
##ick
##ita
##uls
speeds
##dit
sox
chemistry
tag
suv
eric
bauer
##fan
##idal
fuck
##hini
##dou
##din
##bet
199
fay
fare
bank
drowned
##ites
lead
falls
##ica
learnt
1960s
crossed
##kong
fond
##used
wink
nh
240
yards
##ote
ranked
dc
spots
tell
mason
mere
saved
pier
steady
writ
billy
##iae
strange
##rath
freely
pat
milton
aldo
tung
color
fees
marble
ash
exactly
##hand
swan
cf
projects
##47
##tream
kilometre
release
bigger
surgery
trick
raw
##nta
##iji
shoot
zhou
##onte
lesser
extent
blue
tool
fiba
##lais
##rable
extend
##cake
mack
gradually
softly
heard
robbie
bree
menu
##rist
mug
rag
##ths
naked
##ory
##fles
letter
mastered
##ques
##tsu
lights
##abe
techniques
georg
punching
garden
tna
boar
kidding
paper
nes
tastes
sitting
banged
##ans
swallowing
prepared
##agh
##ale
##gia
##rne
practicing
tap
cells
belly
sexy
##ara
dollars
grand
##sume
woo
##ule
voice
assume
nair
shiver
##42
##tore
onto
##von
system
covered
shivering
find
hazy
static
tremble
reverse
moon
seems
lunged
ave
whenever
##hear
hum
flood
timer
zen
##rder
deeply
chased
weaker
gs
##uli
engine
31
##oped
miss
decks
liner
¤
count
serve
##dhi
##haw
pig
successfully
attack
george
maine
##yra
heel
strung
popped
tops
scare
m2
##iki
##ros
##che
circles
##4th
academy
keel
thumbs
useless
conquer
hem
satisfaction
##lus
dread
touch
##ast
rotten
dub
dozen
nurses
arrival
outdoor
vale
##ani
dump
tournament
##pie
vile
valle
similar
##pis
pia
##erly
cara
eun
##oot
lan
sri
##lda
severely
lucky
##lling
beta
##vine
career
primary
xv
erin
88
considerably
lately
altitude
mina
buzzed
remarkable
carter
##cted
##hun
vain
nuts
knots
##urne
michael
adelaide
atm
talked
md
##bil
oxygen
##zine
paperwork
gallons
underwear
##rkin
skirt
define
##lity
nad
jamal
morales
pausing
gasping
fish
boogie
geometry
##nir
moore
joey
duke
##iff
mba
vietnam
##rden
plenty
helps
exit
adding
kicking
trunks
date
##ym
awe
degree
slot
##sef
unsure
regardless
martial
advanced
france
toro
aim
##tou
##bon
##isse
lac
heading
blowing
consisted
coin
##tive
skirts
##gua
##ouse
firth
##ades
rene
2012
drag
##coe
##esa
##rera
weaken
rc
whip
cell
##iating
served
##ena
##ined
##lating
jp
jordan
obviously
clad
wasted
##hine
stepped
yong
kia
april
hopeful
craig
##jon
pulp
cale
news
##pm
##esses
magnificent
thus
conditioned
silent
##aia
##ido
m3
recovered
risen
##lio
prior
##gny
impact
huff
puff
##zee
gotta
##over
screaming
numerous
##mount
##tha
brew
swear
##wes
beans
##mun
##lth
##pies
##vision
kat
##onis
indy
plaid
##ence
##oca
wits
##tern
staged
reads
##ios
rattled
answer
ambiguous
neither
expect
##ions
cindy
rein
resembling
loco
tick
spending
grain
##lim
##dot
##vers
uniform
##tors
##itte
calling
collected
mata
gathered
##lan
##gist
steal
##rio
booth
pilots
##train
2a
inches
##nell
##gun
attention
fen
##ise
shed
ropes
##ular
zinc
nope
##hay
talks
##nare
seeing
cowboy
##aer
##sse
oro
litter
##dos
state
cards
##iso
##ere
mayor
##aves
pitched
innings
##zzy
##nea
join
bert
exam
##ume
##cial
##eda
lasted
rails
##ife
remain
movements
indeed
thirst
bra
brave
infant
simultaneously
##rva
sister
rocked
fest
mono
circulating
post
##par
##tum
improved
##imeters
overcome
trouble
brutal
further
barefoot
segments
portions
considerable
romanian
dedicated
leisure
pena
##tos
canyon
wonders
##leton
sandwich
yell
defeated
inadequate
helpful
tuesday
rested
##rangle
anticipated
pokemon
shiny
goals
doctor
guilty
trash
increasing
##ows
spirits
setting
gains
aggressive
##odle
planet
190
tenth
exhaustion
motivation
benches
##pal
##bha
lightweight
##ask
regime
##ious
centered
lifeless
sensation
carrying
enjoying
cobra
lacrosse
derby
washed
cars
##bee
bowling
##log
practically
intending
logged
alternating
bounce
slowing
routing
bands
##hwa
interest
party
daughter
stepping
elevator
period
skiing
rewarded
atmosphere
rower
songs
batman
squad
elle
nylon
boulder
squash
paddle
##water
standing
##rup
##bla
facility
skating
ankles
fours
cleaning
bathroom
