@@UNKNOWN@@
i
.
[CLS]
[SEP]
felt
and
the
my
did
for
a
feel
was
##s
of
on
just
it
minutes
miles
tired
,
!
in
"
to
ran
##d
but
so
out
30
walked
hour
'
##ed
##er
an
after
##t
##e
workout
##y
sore
good
exhausted
very
en
legs
am
like
at
ups
are
today
##l
##g
tread
t
##gi
push
m
##mill
up
##zed
bike
3
10
great
really
##h
mile
##r
w
20
##k
5
went
one
is
l
two
2
squat
f
-
played
##n
were
s
weights
yoga
##f
do
this
sets
$
with
arms
now
1
three
##es
##x
me
lifted
##4
##j
th
ex
##w
more
class
##ly
rode
afterwards
50
fe
15
first
breath
#
we
##o
gym
run
e
st
walk
ref
##q
##ing
ve
##m
around
strong
minute
n
exercise
that
as
swam
##resh
leg
o
re
hours
had
relaxed
100
##5
be
doing
body
shape
4
half
##ups
not
elliptical
jogged
45
y
d
got
weight
five
##ated
*
##vi
##3
##z
press
bench
morning
##b
(
##c
%
accomplished
some
have
&
jumping
during
back
running
all
al
hike
sit
hurt
laps
go
r
get
he
##a
min
##8
##gor
##2
ju
muscles
ye
work
##i
b
jack
ten
second
##v
time
@
##u
could
weak
going
took
by
wo
ho
little
finished
completed
day
##ted
bu
ti
##p
wind
from
##st
feeling
##9
machine
basketball
when
about
##re
40
pull
happy
##ll
##7
chest
rep
g
##ke
##6
dumb
##ve
h
better
##ng
wa
^
##ps
[
hard
##ld
j
<
you
)
25
lifting
##bell
set
spent
##ce
tennis
walking
card
##io
they
sweaty
q
##rp
still
how
then
need
jo
thirty
shaky
p
##le
;
:
energetic
worked
too
can
long
used
x
li
abs
ha
because
much
or
>
##he
again
while
no
?
jogging
crunch
##ees
gr
made
/
di
fell
bi
plank
se
twenty
she
mo
##ts
her
us
ar
outside
##me
dead
end
##th
over
track
than
four
##lt
hi
ab
game
zu
##mba
mi
down
##ght
done
tod
mu
bicycle
pool
bad
6
fee
exercises
lot
fire
’
heavy
##0
burning
im
video
##de
arm
also
##ht
un
te
almost
##im
ee
bo
ne
tr
u
getting
pounds
fr
training
situ
lo
ready
last
##ju
hot
real
##rt
wi
##ut
bar
##el
curls
worn
home
tried
##ven
8
times
je
fun
neighborhood
pumped
dog
##fe
started
if
tt
sl
##ty
stationary
proud
energy
ba
##en
heart
stomach
##ft
ea
##lift
##lly
##gt
rope
stair
amazing
park
would
##nd
through
high
fresh
##wr
##nt
ga
##ck
mor
##gh
##bic
swimming
##ring
##at
ed
fast
feels
60
na
af
##ch
##rs
##ea
only
aero
full
pain
myself
km
##in
##on
each
ro
##et
##ell
ball
##red
even
ride
brisk
presses
##mi
his
lit
##ou
totally
##fi
yet
200
trail
k
9
drained
cl
pretty
ou
z
completely
aft
pu
##al
play
steps
dance
off
kick
##rd
##llo
fatigue
##hs
##hg
de
whole
lift
la
our
##ry
##we
ja
0
hit
block
sw
six
##jn
right
##te
terrible
mill
##gs
bit
pi
soo
new
12
es
ev
before
excited
spin
jump
there
nice
already
start
ca
7
##ur
feet
way
ever
killing
every
exhaust
afterward
##dy
ce
performed
burn
##wt
##ig
##xt
##ge
ts
pro
pressed
lung
##ee
few
fi
##so
##ws
##hila
sweating
yesterday
super
##gy
pe
##ot
use
though
sq
ra
pl
##ms
free
yo
er
##gg
shoulders
make
pace
cr
extremely
ao
##it
same
breathe
##ting
em
water
able
##ti
##cl
sp
hu
take
##wn
v
them
shaking
ta
##lf
##dd
##wl
stronger
##ver
##se
keep
ac
##ls
its
knees
hurting
tu
stairs
difficult
ll
co
light
being
##ib
sweat
bored
air
fifteen
finish
climb
##ally
##ho
c
da
ol
##sr
pound
##ir
tha
ad
##je
who
ji
ri
nt
upper
stretching
danced
##box
rowing
volleyball
fall
ni
ge
swim
##nl
fa
##rated
always
since
calves
tough
may
warmed
has
powerful
##hill
##ds
most
which
warm
ty
##ga
su
le
kn
tri
##ter
strength
where
ng
##ij
##ct
##ss
actually
jelly
relaxing
##lo
##ked
##sh
##pe
##ky
jumped
##ha
numb
straight
beat
without
ok
until
##om
##ad
butt
motivated
##wd
##lr
healthy
top
##dt
football
max
##hat
com
both
finally
will
thighs
these
##be
du
ae
calm
cycle
##tu
##ca
barely
##tes
circuit
refreshing
stretched
fitness
##lates
vo
##ic
working
house
breathing
##bt
afternoon
##or
ache
next
along
##oy
##hil
##ust
##ef
##oe
thought
##led
##fr
##lb
lbs
##di
##ih
##ble
##kt
##fs
red
##ua
dad
ear
sh
vi
##rk
using
##ill
cycling
stiff
##ns
any
fu
fifty
##hy
here
##hi
hurts
ah
pr
seconds
suddenly
completing
##ol
starting
hr
other
wu
place
sure
##sl
tn
po
hill
die
muscle
##ay
##sd
dr
fine
glad
##day
youtube
speed
##go
less
complete
satisfied
ste
session
##eg
fir
ai
op
##tt
yi
##rr
el
week
tight
playing
##ue
wei
wen
per
what
sa
##id
##lk
##pl
##ks
##ci
dd
relax
tomorrow
tho
row
well
soccer
river
friend
easy
own
##hed
##ers
##is
als
flights
##lu
know
something
##her
sur
##ar
lake
nature
##ent
##has
##ys
non
##fo
dt
sick
##ey
##od
##cer
core
ec
lt
##cise
ut
gi
him
##rn
having
sud
riding
##pt
love
never
sho
limb
looked
br
confident
ki
##oa
another
act
wit
35
hundred
incline
sr
si
hs
hand
##ged
shoulder
ck
skipping
climbed
days
war
floor
##hn
##hen
terrific
fur
least
##rl
determined
awful
##ro
kilometers
##la
racing
short
ii
aw
##cu
pushed
##pd
##ae
##rou
beach
et
eve
into
evening
forty
dee
##rea
ka
noodles
##ug
kettle
##rf
##ating
bet
##les
##fk
##mp
##ore
wanted
slightly
ci
##ie
##for
##da
##sa
##hin
##tly
##way
##ery
mountain
son
##un
##hu
quite
##ri
attended
int
##sy
wat
il
once
sg
##sg
che
##sb
##ne
sec
##il
golf
wal
awake
fin
eli
machines
##ok
90
##us
##jo
lifts
far
dying
##ew
##hl
milk
away
definitely
often
tre
hills
look
##ies
usually
##ii
should
##sted
local
ag
cal
road
early
absolutely
##gis
think
##ml
field
##gai
acc
wr
awesome
300
step
##ved
ham
add
routine
eat
bei
rate
##ely
ff
challenging
ya
overall
makes
pump
intense
rest
##ec
intensity
cold
##xed
ot
##ger
goo
##how
needed
##one
##sf
hungry
000
##ugh
your
##yt
##js
##hing
##up
aching
yu
sc
jun
pre
power
##ze
cross
##ase
put
gu
mom
daily
flexible
pick
rum
dizzy
au
wiped
sm
##sel
aa
nothing
ill
##aus
blood
fit
##out
##oj
physically
stopping
meters
might
usual
ist
blocks
##his
por
shot
endurance
spend
calf
painful
##fy
old
slow
weighs
doo
fk
lil
##li
lb
##tr
weighted
plus
try
cp
ap
ke
ua
stand
empowered
cu
##to
nu
##os
bag
##haus
total
##xy
##ul
##ead
##und
##au
tak
##bbly
help
##zy
buy
bro
sat
headed
tor
mil
##as
goal
realized
les
##all
sk
ir
ins
##rg
con
##cy
big
ate
##bu
##ko
alive
##ik
dl
##ji
foot
ss
##uf
hands
course
couple
##oo
enjoyed
fl
##ung
##med
tee
peace
##um
xu
##ptic
ip
ma
##min
##ba
dip
##ob
##fer
dancing
games
volley
boxing
##nut
moving
been
##of
mt
##nge
sha
##amp
##ful
##oun
##uz
come
challenged
tire
breathless
knee
ur
catch
hardly
##ove
##ex
ku
low
store
later
race
##cks
##ned
between
##su
hope
rough
og
ter
##ap
incredibly
began
ds
00
##rm
ep
hear
eel
tea
ch
##hr
##wa
ing
##tl
worth
wee
5th
##con
##wo
।
##hit
##ute
read
tim
##dh
bell
lu
many
gotten
av
heat
ak
##bo
res
biceps
left
##wc
und
ton
everyday
ny
rr
bk
##rh
somewhat
rec
trying
ml
##ta
##ei
##tee
##lle
##per
##oma
fei
##era
thou
##ud
##ag
comfortable
rid
fill
##py
mint
people
##tua
va
don
mai
##kr
okay
bat
stretches
##ging
##bl
##no
bed
##mo
##ball
practice
sy
sf
##eh
##ru
gets
##ai
inc
##hes
stop
became
col
lunch
om
##ma
ked
increase
mind
##lm
night
thin
##int
##ren
##hp
inside
##xa
##ah
nl
wet
instantly
mw
however
del
150
pp
barre
wonderful
##light
##our
##lea
see
##han
friends
raises
sometimes
enjoy
stretch
chin
twice
best
xl
##rating
pa
jin
area
performing
slowly
active
lungs
owe
##3d
##res
past
marathon
##use
##ath
horrible
oh
explode
clear
##lles
##gen
##ile
##mal
hood
relieved
incredible
ass
quickly
eventually
75
gives
say
##uld
different
##oda
##nb
intervals
gel
##ole
##ki
enough
##ping
form
##xi
##tin
record
##hc
##fa
man
##gu
##hd
##ong
han
seemed
##ling
##fle
burned
##af
##fin
consecutive
their
eight
city
sai
rev
##men
##ess
##ow
##hic
##rat
##ight
want
curled
strained
immediately
##cc
tel
tb
curl
##gr
everything
##if
fantastic
wow
##dr
nap
##ix
doin
double
forward
dow
½
bs
men
met
##oth
##cke
##ving
balance
nine
although
didn
car
##rc
##ny
strange
probably
cs
thousand
rig
##ler
def
##wen
##ues
path
actual
eh
##nes
stupid
ia
life
##fort
##ate
##ner
##iv
ali
event
vu
quit
break
##war
including
boring
hat
##hh
making
lap
##cs
holes
tow
maybe
##ln
dan
io
trainer
##ine
##ev
mph
##lp
mp
##md
ns
##bal
alt
rubber
stil
##kk
weightlifting
skate
##wi
rows
##iy
##gee
rotation
##an
rounds
interval
##ped
participated
practiced
flexibility
hang
group
ago
##omp
shake
jug
held
##ber
sin
roller
across
lacking
boxed
##master
rowe
faster
##ike
##ning
##ean
side
mark
aka
trails
sd
town
##met
stressed
harder
vr
##oms
##sc
school
adrenaline
longer
ph
belt
tree
##1
slug
kept
ted
world
sas
honestly
heels
##og
##ith
mon
grew
reached
##ree
nan
jj
##sto
seriously
overwhelmed
##cus
stay
fig
focused
##aj
trembling
##sis
hz
##ired
small
decided
thigh
##ost
rt
1st
nave
##po
##yo
##wing
month
rack
bee
mini
rs
imp
##mg
fourth
following
sen
##ity
3a
250
gold
against
wall
##ire
approximately
weeks
struggling
##nh
##ep
##uh
mostly
##ni
##com
rail
##rly
remained
##vy
##cb
##ley
god
ser
##sic
neck
pulled
ann
##ced
##jer
taken
entire
##tel
##ton
##fu
##rse
bea
##thi
len
##pi
ow
beating
failure
biking
spinning
##umb
rf
##pm
##hre
##urs
nk
##lie
mk
##pw
rarely
year
##cm
##king
##tter
##mat
exercised
##tion
ms
under
22
move
boy
damn
train
##tic
##mos
resistance
hen
lee
mab
team
##ull
towards
beth
##nte
##lled
alex
##kou
doi
said
tense
##ough
##uls
##ra
shortly
circle
mine
white
rock
lighter
especially
boot
several
hk
##dra
##zd
##ka
##wy
##uit
##iq
joy
loose
quick
##ive
##vs
music
feed
stroll
ko
such
ground
wore
loosened
##eo
cw
##ical
forth
##cr
mas
##hine
near
physical
##ied
loss
watch
##eter
##op
ld
##iny
thy
que
qi
tia
ben
lower
gui
##ump
nearly
relaxation
##qi
##kh
sv
##ass
##tre
followed
hut
##mes
18
##ded
##sti
##wed
pass
hoop
##ges
annoyed
hell
hiking
basket
give
soy
hold
kind
ski
##overs
extensions
killed
##hm
##fat
##uted
seven
sun
tier
##vin
pic
miserable
loved
##hem
productive
drink
outdoor
##fen
regular
indoor
##own
pumping
yard
sprint
why
ting
meter
##ous
beast
doe
head
intensely
country
beginning
nonstop
dai
black
normal
##ness
thirsty
increased
ant
##ax
round
##ain
ana
age
quarter
##git
##erated
##mer
bot
##eed
ib
mid
fed
personal
##tet
500
program
lime
225
##hos
##ways
split
med
sea
##ple
##ros
##ye
##ding
beg
proper
app
##weight
qu
hated
fail
##av
80
##ia
##ound
##tf
ang
70
room
##qa
million
sins
ru
nod
##pu
muscular
##fting
##vr
stroke
watching
##ther
effort
repetition
##scu
##gin
food
waited
##rdi
ft
bunch
party
##dan
##rai
ob
qc
rex
##lde
##jon
55
##ant
sal
trial
##ert
ways
##ira
flow
##mb
fairly
station
fx
##ckle
pains
normally
##tp
##mous
alone
##sing
##eme
huge
##kki
cam
ata
except
##oked
damned
dirt
those
whatever
id
##cis
months
control
pedal
##ible
##del
##ffi
wb
4th
improve
yes
##wu
##ons
ankles
##fted
##rous
matches
table
##shed
match
ina
##hus
##jal
tuesday
##rer
##hee
##rong
##ets
gt
begin
##ying
rob
##na
##nu
cm
##pen
cha
##tal
##win
bloc
browne
##du
bail
nw
##ku
##ays
um
##am
mar
##tron
star
##kor
lay
##ame
luckily
##nin
##igh
##gizing
revived
initially
member
restless
job
mood
alert
upbeat
##rter
movement
progress
fly
shi
1000
building
##aw
regularly
des
tonight
earlier
basic
##wat
enjoyable
eng
ind
walks
health
gas
##uc
##tiv
otherwise
##yi
kinda
##uin
kids
##able
gust
honest
ein
##ried
average
##dm
##ened
pleased
##cal
runs
##ip
##pit
mn
##tan
mac
straining
unless
soon
lab
##ome
##illy
##nig
##pr
pained
perhaps
das
awkward
50th
extra
##jin
repeated
controlled
beer
##zing
sol
vin
##har
##act
##ere
##ure
wear
self
keeping
##co
weigh
hip
nc
##wer
obe
##gn
##old
must
##eke
##lder
rn
hp
lots
dat
##dre
toned
tin
##vers
call
burns
rd
show
dar
##uy
jim
liv
win
saw
pressing
##rta
##fly
##eb
mat
sense
##rb
downward
##eld
##ening
##ssi
middle
##ool
##ja
##ook
##rre
##hole
reality
##ab
activities
skipped
##uti
challenge
##ond
abdomen
##uw
sleep
gate
hal
mit
##ories
drive
forever
##nr
front
struggle
environment
pas
alternately
##ste
mr
ct
wise
liu
wait
##lc
gardening
ale
##ses
##sed
curves
typically
classes
##df
forest
##uta
##ek
anymore
court
literally
everyone
##ya
skip
##ual
does
part
##ows
master
13
wta
=
close
throwing
badminton
##ff
##hua
##work
mobility
death
cricket
climbing
managed
baseball
ice
easier
outdoors
sharp
##cam
street
kilometer
collapse
circles
stone
sprinted
ike
gut
##val
##ali
ring
engaged
believe
##zh
expected
lose
kilometres
##nall
2d
##bor
hilly
800
ultra
degrees
dragging
##rst
##pod
dam
##dae
##ily
##zine
drenched
alright
##words
studied
excellent
neighbor
picked
dec
poor
slower
limit
performance
tied
##ear
reportedly
dq
##qu
##fb
goin
virginia
psyche
reach
ren
prof
nov
mike
##unt
fields
safe
mara
shin
girlfriend
##nn
compared
##zzi
gp
thing
injured
eu
tip
##not
235
##gong
##ux
dew
attempts
bout
##used
##bs
maximum
##ppa
sumo
##pf
lips
db
exactly
##dl
sid
ling
spaghetti
effective
pressure
##mm
approx
paul
vet
ashamed
sex
woke
years
##em
number
##hal
pri
##ming
##ats
senior
citizen
ned
flee
sad
##ched
bsc
##aks
dig
perfect
twelve
##ces
percent
##sp
##iel
##ect
sep
lau
tv
##ene
fight
##cz
abd
cat
mild
flexed
##word
##are
wai
loud
exercising
vigorous
ek
pushing
length
shoreline
hers
heard
pep
lonely
severely
inn
hq
##yn
##ify
##hip
##fed
anything
nee
##jit
##eet
nz
cyclic
worm
kin
drove
nak
##cin
habit
build
coming
wasn
rot
##ode
fore
nh
pak
##adt
rpm
##mple
##wk
##ein
##ude
silently
mentally
roc
turned
##yk
square
##lke
pose
##walk
net
##ths
rose
##osed
##side
bas
cy
##mt
cool
nike
14
log
forgot
bare
##lot
##nto
gee
wc
kid
guys
bing
##cle
level
green
miss
##hon
##ose
finishing
##put
winning
##ice
##ept
##gb
aye
lai
bp
cleaned
##shu
meant
struggled
whilst
##bly
##lish
won
taking
kill
##ema
similar
##end
##vu
##nx
25th
##sie
sire
##uts
wake
mig
##cies
##ary
pv
important
##cial
allowed
##br
ala
wan
nobody
hum
nic
moor
##fm
##ques
der
uss
dil
jon
raw
eta
##eye
hips
lace
freaking
downtown
##eda
flowing
tide
##bay
cn
talk
##mis
##erly
central
##ini
##rri
stress
##ui
##oed
meet
##ide
lie
fat
rhythm
waist
fired
##oin
##ej
##aid
##rma
lim
swing
##oi
tyre
ky
##ial
mall
mobile
apartment
##een
trip
##lim
30th
dogs
##nty
jp
##ett
clean
##lok
arrived
##ske
broke
##abi
sucked
##mx
##nce
##rad
##esh
##time
##jk
##gf
##vre
thinking
fis
west
19
ultimate
par
het
28
##uo
##den
##uous
##ili
##tat
cis
##lon
ic
##hor
md
##lip
ally
##abe
##tle
##nir
bigger
moments
rather
yoo
est
##uca
ward
##mute
fins
##ub
mag
rib
##elt
load
peg
aggressive
grip
focusing
fold
interested
isolated
stole
##jm
##rz
pee
gave
##very
##lding
det
heavier
variations
cable
##tive
smart
previous
thrusts
##oke
##oh
pleasantly
touched
##mme
dozen
wrestled
tc
yun
##yes
club
fai
due
band
online
##che
##dc
##fl
chester
ama
##par
seats
##ape
##my
##cts
##bi
nut
##uet
gone
##mmy
abu
tremendous
capable
##nk
##va
style
##dell
mal
##rang
suicide
##wee
##rit
##ves
decline
helped
120
fen
##irs
elbows
##aling
enjoying
##gly
##chi
##age
##lat
ore
ninety
nat
military
##yl
##the
rally
tame
tremble
##rte
fan
vol
##km
##mber
poses
##vent
##mas
workshop
##xx
##san
mediation
2a
kelly
nec
sexy
stud
wah
##non
foe
##dio
bay
base
confused
##kin
constant
##ise
emotionally
tie
##ort
basically
##ics
sessions
ymca
##oom
##aly
hop
sum
asa
wil
##cie
james
mer
aus
chance
##bing
truck
##uche
160
##ak
butterfly
setting
##eal
##yed
##ulf
##ena
practically
sue
prefer
nearby
purpose
bathroom
laos
##via
##had
##za
##rim
##uge
dir
np
##odle
fists
called
groove
toes
wide
wheelchair
existed
##tics
parallel
raked
leaves
wii
fulfilling
stadium
amp
hopped
td
sides
##quet
shower
##amina
°
##ac
##bit
heel
useful
hove
tram
##pol
firm
##sz
ska
north
stu
##nished
##pin
bye
toni
##tc
##ati
ballet
camp
##pes
##pp
peak
experience
##ail
peaceful
seems
covered
nas
##bre
fair
woods
##wind
##tum
##tai
passing
player
cord
badly
coordination
seek
derby
tour
generally
knew
gem
easily
tracked
distances
amount
type
foo
##nti
soc
##rus
##gat
240
yards
##jing
arc
##oge
bursting
fear
##ez
##rized
##ser
usd
##nal
##sw
##ult
tau
karate
tone
##si
action
tap
studio
period
plan
##art
standard
bank
large
shivering
standing
pop
boards
weaker
lunged
giving
chase
instead
##ady
##get
satisfaction
pride
assisted
happen
##ave
ached
##dad
liter
gus
paperwork
throughout
continue
##ish
toward
excitement
third
##rick
##mel
recovered
stopped
cars
rebound
numerous
bun
given
##nds
##head
kay
grain
ropes
born
trained
relief
taekwondo
completion
lev
joint
toe
tender
shining
##wai
late
depleted
sidewalk
terrifying
else
##ures
parents
adventure
nintendo
switch
##ami
torre
pines
raj
dunn
lost
##tier
soaked
humidity
soup
couldn
itself
os
mir
dj
##olo
##block
weather
plant
##tis
spartan
##ahu
67
sway
stab
thick
clothes
##zen
loomed
##est
reward
grateful
##athlon
realize
dome
headache
##mins
spot
checking
lane
##acing
conquered
2000
aimed
##phine
runner
gross
crazy
temperature
higher
levels
entertained
content
shit
##hay
##uate
##nni
rests
rag
##onte
lack
pasta
##lin
patch
final
loop
crushed
cinder
parc
circulation
chances
##ph
##oric
movies
narrow
ze
##ssion
brain
kevin
mission
##pc
##mbe
##gle
buzzed
girl
attempt
var
##wad
logan
homework
ryan
##ware
seat
##line
gm
zhou
scared
theme
##rry
mouth
##ric
ahead
routinely
unfortunately
issue
looking
##man
chris
##aday
found
taxi
uncle
threw
##ima
##qua
prop
##rie
rook
killer
martin
##sk
##ots
skills
lac
##unes
gin
##nus
option
tna
dry
##gni
shut
##ches
noticed
adjustable
ric
moi
##nts
medicine
##bbed
tq
yin
##gl
##view
rating
guild
##lines
．
##cen
forwards
##oor
lying
disc
##rin
##mac
prison
swings
successfully
##igo
repairs
##oic
width
liam
expect
##rth
bore
chased
differ
pairs
cracked
battered
##was
shaped
##vb
##run
qui
strain
moved
##kes
##nger
amour
amanda
fingers
hesitated
##rize
preacher
##shot
thrill
##hart
starr
eighty
##lite
locomotive
305
lin
##bel
loses
ara
quivering
##gal
seventeen
riverside
motive
motor
##cic
##wice
##uber
rides
sci
##ture
slept
reading
##tti
##loe
##iae
##vey
##tip
dh
##iri
quad
fact
ode
##0s
cheap
##oid
hair
blew
measured
140
phone
##iu
##gut
motorcycle
##rate
ware
counted
##orf
breaks
ultimately
bruised
##nde
showing
##ads
strangely
driving
##nel
##fc
drag
finn
cf
live
continuous
barley
anyone
lp
overtime
stove
bal
##arth
hadn
##yx
##ghi
anywhere
onto
##ggs
torso
needs
bio
##him
##vic
##rey
lowe
rapidly
tiles
files
optimistic
tech
clock
##tur
fra
##ens
owned
seasons
rated
farm
##can
##bat
kim
##tz
##ston
bam
##cel
medium
cheeks
satisfying
fortunately
hades
straightened
useless
canal
care
##free
##ale
wig
##ital
##ized
##ddling
##cking
instant
spouse
existence
ps
##rson
##rem
##cent
##asi
##eto
##rok
beneath
singles
doubles
##nis
una
pay
yen
##nic
ark
plaid
##uth
prep
ethan
collegiate
##zin
fulfilled
fife
afford
mean
##olt
##vera
ears
lex
guy
##var
lush
##hort
exam
bull
##lar
let
##tone
balls
line
fay
##yle
sir
fare
mm
yourself
esa
##eyer
finger
wakes
cent
##gger
##sm
。
cut
##ower
torn
knuckles
basement
##rdy
vent
smile
lest
fails
##some
ks
##jet
jeans
struggles
falling
sing
##aux
fucked
fuck
##ast
individually
##vo
series
##thy
decent
news
##bry
falcon
nest
01
wished
contents
vigorously
thru
110
##lak
van
##ashi
##don
mimi
michael
##eon
arrow
hey
arte
secondly
mc
kings
muddy
family
distracted
downstairs
young
##wise
rigorous
neil
##vd
ems
husband
##posed
company
knowing
triad
relieve
achilles
mode
17
tata
dod
6000
site
forming
##front
reduce
##dden
perimeter
cheered
##bis
##din
##bot
locke
##unk
nonetheless
target
size
##mmer
rained
cubic
##eak
supper
trek
rc
##oses
duc
silly
operate
comet
##oted
board
##pet
tran
##uce
worried
joe
surprisingly
##long
behind
loki
farther
stimulated
horses
##kos
rune
##rug
leslie
sans
electric
##oes
mental
reasons
inspired
saying
hello
tackle
lively
wearing
loaded
backpack
brains
pleasant
earl
travelled
luc
simply
##eli
responsible
##gged
ile
sleeping
##rac
##isk
thoroughly
##hue
liz
mud
listening
spirit
sudden
##tres
sailed
raising
book
flew
happier
flight
3rd
##00
longest
subdivision
600
##lves
stuff
##rne
beyond
cigarette
says
##het
tis
crew
##stra
cas
preserve
til
pour
thor
##vn
bags
groceries
##tern
palms
awe
##leen
##ntal
muse
fcc
##iting
danger
officially
##ors
elk
laura
##ero
##ben
newly
outstanding
boo
##lio
##sil
unstable
solid
bets
indoors
##cao
##tea
sofa
hide
visiting
hearts
##iol
menu
##yse
##right
coop
daggers
tortured
french
beta
dodd
random
bricks
steppe
##pg
dev
entered
ray
hay
clearly
boss
boar
##rica
spit
tool
##edge
elliptic
builds
assistant
##urer
buses
##tica
answering
considering
requires
##hey
mx
##vik
business
kw
logs
##dal
##gil
dropped
130
tray
state
##gies
tested
pulls
rae
##ually
##gm
##cp
serious
complications
##ige
##oon
athlete
##rro
##lier
rub
##ian
##xes
prior
mix
angel
atm
general
goa
##ered
somme
throbbing
upstairs
focus
##thing
storing
mbe
fragile
##feng
test
web
promise
morse
finding
##pati
##yar
monitored
via
demanding
snatch
added
tingling
##90
##oned
##ule
stat
multiple
##una
##gel
restrained
recover
##pic
blu
##dhi
##bh
discomfort
hurdles
##chs
##yu
wash
##nz
##lone
sports
wight
possibly
##rds
holiday
sam
##sle
bells
weighed
##cted
##sau
lawyer
##roy
##tain
wood
gum
loving
##cta
extended
eye
##oll
##sei
frank
curiously
180
caliber
##yre
churning
concern
##thal
##fall
named
slope
russian
twists
throw
destroyed
##wil
##gens
##eck
lady
egg
dc
insanity
cooling
adam
##jong
vital
risk
examination
23
none
typical
oder
naturally
variety
sim
cpi
##sty
##metric
hardest
qin
prepare
zoo
##bil
gears
##iter
delle
truly
135
sting
activated
volume
nutrition
filled
herd
##lifting
boogie
##ndt
eyes
triple
cute
likes
##mc
##gan
##pressed
impressed
bn
##ech
##rao
##sse
##liest
flu
aj
##az
ban
##tto
count
##fully
bend
bae
lining
205
achieved
##ici
earn
neo
tyres
complaint
accomplishment
indo
##rot
##nch
hitting
heaviest
rubbing
caused
##ress
above
##dp
imports
pitt
stops
pg
##hli
##adi
pissed
dent
gen
ponds
flat
185
require
##orth
##une
fits
##lous
sober
puts
##ply
trust
##nc
##dou
cult
spite
difficulty
##yana
##kar
adjusting
##table
##uj
immensely
##ited
rite
##deh
##ana
flex
robber
##ink
##yas
calming
##rien
based
##zai
tens
facing
fabulous
##lth
##oud
unit
##aq
##fide
intimidated
¹
₂
⁄
rat
heated
coil
bottles
scare
clad
##case
warmth
winter
moment
movie
##ddy
cooled
leaving
pike
##fect
##pie
##dit
##joy
silence
##nder
male
##azi
##aa
##son
ours
##sden
##lain
bucket
##code
pony
##nail
##ack
##gall
##ears
##sur
led
bounced
woman
athletic
awhile
smaller
audio
##shi
##elin
dancer
##sen
kc
##hae
bedroom
judo
bra
##ctic
besides
honors
busy
gov
##cca
assignment
##ppy
##rral
wickets
##main
ave
knot
olds
storm
song
eps
oil
downs
tires
##mun
##ush
overwhelming
improving
##ains
##mut
##rio
mis
##ist
mad
joints
##uni
xi
##iff
apt
sky
living
stones
sap
aged
phi
inter
##ically
ely
tug
manage
disgust
brew
thud
dug
sour
uv
sidewalks
haas
boosted
##lock
augmented
quiet
##ios
story
caste
cows
coe
hired
nile
corner
estate
desperately
distinctly
##kie
##ressed
speculated
##eded
##lee
lear
moe
ari
lens
deal
sb
owl
armor
asleep
##cap
##gre
kb
parked
cardiovascular
jong
##ova
##dur
union
##mot
##gles
sued
painfully
wandered
searching
hbo
delighted
##ign
jang
##omo
concrete
##yon
##and
##eding
##oot
mills
witnessing
beautiful
waiting
##xin
coup
##llis
twisted
function
##pis
##essed
opposite
##rdo
20th
snow
##sho
nur
##dro
haven
hydro
##nas
simple
model
tastes
##inn
##20
yd
pushes
dramatically
slowed
moderate
netball
together
shell
stan
archery
##chers
##igate
costs
saber
##ony
##lets
avail
universe
##jan
softball
##house
##ken
everywhere
rocky
##ium
soul
dakota
bus
##fan
sound
npr
##sat
research
swiss
##balance
competed
cheer
competition
ain
surfing
frog
burnt
reed
lessons
handball
farmer
barr
sits
pork
sweets
beam
fort
maintain
obstacle
naval
partners
paying
##bf
##db
meat
functional
learning
thirst
chemist
yan
forgotten
deliver
##cing
##bro
##gie
employee
scheduled
london
currently
jazz
whenever
ax
##mble
rise
##dom
altogether
##oir
filmed
film
pip
##iz
apart
usc
ui
secret
waterfall
scenery
upon
change
pinnacle
spencer
butte
indian
##ands
exciting
hunt
uno
##jou
##oc
##bos
peek
throat
pole
##bad
safely
happily
aldo
list
fond
##tung
vest
##nos
##ese
##hun
preliminary
##hul
alf
ridge
connected
saddle
qb
aba
##rted
mao
##bol
hai
##ars
hale
##dna
champ
backyard
##iam
pink
rapid
lastly
las
plate
##kat
gs
cement
vase
competitive
shooting
bass
##ward
cho
lam
##tions
sis
gems
tom
##ood
hampton
shu
##tar
hockey
sic
lad
bop
college
pal
coaching
ankle
swollen
consider
traditional
dell
gauge
##mount
##ries
varsity
##8th
##ille
##lli
##hei
ul
##static
minimum
kilometre
sync
##oni
##zer
##net
##ntly
foul
##rov
##ably
quietly
fancy
##tra
##9th
looks
wrong
##oft
exceptionally
quote
fog
##nare
##by
acted
pun
floating
##bow
constantly
lax
##shin
dared
##gam
present
gina
##eer
##ori
utterly
hate
taste
##lor
endless
##lla
cove
##rip
pier
steady
dock
south
dark
vain
person
##top
##oss
##400
lead
release
##ttle
usl
cultures
women
tall
maintaining
anyway
##sef
dem
##enne
geo
metre
este
extend
finely
unsure
##outh
eine
##wall
bob
san
halls
hack
mum
uh
los
lesser
extent
dive
von
##dle
##yin
lazy
onion
bud
shall
rus
##eia
instinctively
thomas
dylan
aim
##ular
##que
##mind
kara
remembered
skirt
##tsu
punching
losing
bf
lights
techniques
##hend
guess
##rom
##ching
growth
means
gifts
garden
mach
within
prepared
choreography
##gc
luck
inexperienced
practicing
california
##rna
perfectly
belly
static
##hak
poe
wherever
nun
gan
sts
judy
cycles
##just
tighter
##lan
iss
treat
##ott
tops
moon
##iste
reverse
loft
uniform
minh
##gua
connor
kicking
##oro
##rch
##lang
##wg
##ines
##gau
##lad
accelerated
700
pig
##nine
ole
floors
##oped
trees
lars
grow
plans
tasks
anna
sorry
itv
##rar
##org
##dly
fool
##nda
##cio
##kur
serie
attack
nervous
##lom
16
conquer
##aba
ops
true
achievement
gained
plain
bars
##bb
touch
cow
nearer
cad
##pse
occasional
॥
sand
pair
##sko
tournament
##jee
##mit
##inton
##ard
opponents
remarkable
ava
##kill
hole
system
##eft
##ices
sounded
##ten
checked
wanting
##lz
##cit
##rak
fest
##sion
define
##lity
rafe
##rel
##core
matt
8th
##nged
houston
toy
##uk
sorts
##won
either
1a
##rmed
##hdi
##kal
apr
seem
gear
hall
##pro
3000
turn
oxygen
##bine
dull
##sit
##gers
adding
gasping
fish
strictly
pausing
vice
humiliated
##pate
plenty
helps
chu
chi
##wart
##nate
girls
hon
bel
actively
positive
box
##sin
##ion
##xing
##mata
word
##imated
lick
martial
arts
##rent
gymnasium
##sper
##aud
carl
##do
space
trunks
24
##bai
destination
overs
##ane
consisted
wings
##eu
##ggle
expecting
##gp
tan
wing
weaken
##ock
xp
##lide
##iating
scored
hines
##tas
##rky
##ris
bt
conditioned
cheerleading
yer
jd
aware
indeed
kicked
others
impact
huff
puff
shorts
dvd
##roud
busted
fees
seo
##rant
confusion
##ibly
mel
stepped
rug
##ont
jackson
bc
regret
decision
howe
##ato
visit
##tte
passed
jumps
##ite
somehow
##ional
\
##dia
etc
vs
terri
tribute
screaming
mexican
rocks
cramped
ron
thrust
fran
chan
cindy
##nally
##ash
panicked
##ake
##aking
rein
thee
carried
##fell
sar
bobby
trapped
##yte
##ffed
kinds
##uder
##less
olympics
##oit
improvement
##gar
tab
shuttle
##dar
##dic
stick
iii
pd
99
cowboy
thus
faced
bucks
£
##dez
##late
panic
pitched
innings
wandering
##ach
cai
##ises
gun
married
bending
fixing
hue
##tner
metal
brave
lok
apparently
todd
infant
simultaneously
mono
circulating
post
improved
billion
##imeters
overcome
trouble
broken
somewhere
brutal
further
barefoot
returned
embarrassed
segments
portions
considerable
romanian
##form
dedicated
leisure
pena
##qui
##tos
canyon
biker
##idi
wonders
##leton
bikes
sandwich
yell
defeated
inadequate
helpful
perform
rested
##rangle
carr
anticipated
pokemon
shiny
giant
goals
doctor
guilty
trash
increasing
spirits
gains
armed
abdominal
planet
190
endured
tenth
exhaustion
motivation
invincible
benches
position
##pal
##bha
##rti
lightweight
nam
##ask
regime
chair
##ious
centered
lifeless
sensation
carrying
tighten
cobra
lacrosse
horse
washed
##bee
bowling
##log
intending
eleven
logged
alternating
bounce
slowing
kicks
routing
bands
##hwa
interest
daughter
stepping
elevator
skiing
rewarded
atmosphere
rower
songs
thai
batman
squad
elle
halfway
nylon
boulder
squash
paddle
##water
##rup
##bla
facility
skating
fours
cleaning
kitchen
things
