@@UNKNOWN@@
i
.
[CLS]
[SEP]
felt
and
the
my
a
did
for
feel
,
was
of
'
##s
it
on
just
minutes
!
tired
miles
"
to
in
ran
but
hour
##d
30
after
out
-
walked
##ed
an
workout
exhausted
so
sore
very
legs
good
ups
like
##er
m
at
push
are
today
##e
en
really
am
tread
great
went
##mill
bike
20
3
with
up
10
squat
mile
##y
this
yoga
that
two
were
played
weights
5
##gi
##zed
is
one
##t
sets
arms
2
three
##es
me
do
have
lifted
t
15
class
ve
more
strong
s
first
ex
exercise
##r
50
breath
afterwards
hours
1
minute
gym
rode
swam
##ing
run
ref
body
relaxed
##k
##resh
walk
jogged
had
##n
we
now
doing
weight
100
shape
when
l
o
five
morning
around
45
leg
he
hurt
elliptical
bench
as
press
muscles
w
th
[
they
training
could
##o
##l
finished
laps
made
##ted
half
##ated
time
got
running
4
back
little
during
min
you
weak
##h
f
fell
took
happy
##ups
from
accomplished
##g
done
ten
n
some
be
by
##bell
basketball
about
hike
jumping
not
##gor
sit
completed
##ld
spent
bu
work
second
dumb
##vi
energetic
better
wa
rep
jack
go
day
machine
going
chest
##he
then
get
cycle
lifting
hi
she
feeling
40
used
hard
25
end
all
thirty
j
re
##m
twenty
because
burning
sweaty
down
need
every
jogging
tennis
##rp
than
worked
ti
##io
still
pull
long
wo
set
e
##w
walking
crunch
much
card
y
##a
##ees
wind
fe
shaky
only
##f
ii
pool
can
st
zu
##mba
times
four
started
if
game
mill
exercises
ha
plank
pain
ride
lot
while
##ly
fire
energy
too
over
abs
how
video
arm
jo
outside
dead
pumped
un
te
swimming
feels
bad
would
ready
lift
##i
rope
there
track
again
last
60
stomach
wi
pounds
also
##ps
presses
aero
##bic
feet
##ts
through
ye
hot
neighborhood
heart
few
im
which
’
bicycle
or
excited
tried
fun
je
real
bar
##ce
##led
al
hit
home
bit
mi
stationary
6
##llo
myself
fresh
8
heavy
has
la
park
six
##al
proud
##p
mu
stairs
##ring
week
shoulders
worn
##nd
free
fifteen
high
our
sweat
exhaust
##lift
h
totally
block
fast
getting
trail
even
warm
200
dog
before
##ting
##b
them
fr
curls
stronger
##le
hurts
situ
dance
make
full
sweating
terrible
li
##ch
pound
ball
each
tt
ai
days
take
d
stair
##ve
amazing
##ven
se
start
ah
##has
com
##ng
will
##ke
il
another
mo
play
jump
pi
his
yesterday
powerful
ear
breathe
##st
pretty
killing
ll
##ght
12
no
g
these
rowing
super
ho
##ju
shaking
ok
didn
been
never
drained
off
af
lung
looked
burn
##ms
spin
steps
jumped
kick
aft
nice
afterward
:
gr
sure
train
##it
strength
0
##ty
bi
brisk
seconds
fifty
u
climb
volleyball
its
breathing
fatigue
light
ta
whole
difficult
##de
almost
##ut
completely
healthy
de
beach
where
el
soo
lit
di
stiff
dad
##se
ab
pressed
##lates
your
knees
air
satisfied
lo
tight
jumps
her
##at
aa
cycling
mountain
upper
any
yo
pace
tough
##hila
beat
ja
km
numb
ou
calves
afternoon
##u
butt
thighs
hand
mor
what
jelly
##tes
ad
stretching
danced
way
right
football
same
##ll
complete
##z
along
cold
weighs
dd
##lb
weightlifting
##ging
##bbly
##re
hands
##ell
tha
##ry
muscle
left
##te
35
needed
playing
tr
refreshing
##lip
chin
##box
bored
motivated
water
##lly
au
hurting
working
without
extremely
well
next
sick
youtube
##ur
300
want
performed
challenging
goo
##et
##uts
du
use
saw
mini
keep
thought
stretched
sw
ar
##rated
straight
##ul
##her
##ble
##ot
until
able
warmed
think
ao
may
po
shoulder
ever
##ter
their
bag
son
who
fi
calm
look
relax
mine
enjoyed
tomorrow
hundred
fitness
drove
forty
being
fa
weeks
know
die
into
fine
##on
7
something
p
ma
##ar
##gt
finish
less
pushed
lbs
$
new
session
tu
##ful
always
ju
several
wanted
makes
bo
##day
pe
tri
ba
dr
practice
circuit
##so
foot
swim
climbed
easy
sat
##fi
place
challenged
years
##ic
kilometers
9
ist
ein
fall
##hill
loved
na
determined
finally
speed
though
already
kettle
routine
##ating
##th
##gs
core
50th
##cer
fill
##aus
soon
using
##oo
relaxing
co
ia
became
step
put
cl
house
hr
##ust
awful
top
##ht
##hed
hill
hardly
other
fit
shot
river
meters
##use
floor
kilometres
breathless
fantastic
ate
having
##ge
noodles
low
stop
##lo
alive
?
wat
riding
hungry
everyone
##ery
ra
twisted
pu
ic
&
love
people
couple
belly
golf
90
flexible
away
##one
lake
ache
since
hills
painful
moving
##gis
early
##ig
doe
##om
##ho
stupid
flights
burns
okay
##hit
##our
fee
##ning
curled
va
intense
##ally
doin
ro
##v
life
##ns
ne
intensity
##id
ot
##we
once
barely
aching
row
course
##in
stretches
rows
quite
ni
machines
lifts
enjoy
friend
local
bee
lungs
school
form
endurance
field
glad
short
job
often
blocks
completing
starting
cr
##ir
##hus
evening
00
seven
terrific
most
incredibly
wei
awesome
months
both
comfortable
big
gymnastics
tn
eight
##c
don
##cise
sole
als
enough
tod
trained
rec
path
doo
##ea
rest
##ey
although
goal
wonderful
watch
music
including
##ol
##ers
incline
hiking
under
##nt
shi
sur
skipped
cross
daily
v
games
practiced
cal
pick
soccer
skipping
boxing
nature
stopped
physically
should
knee
gust
11th
slow
rough
dying
##tly
##hil
racing
calf
spend
tire
pro
ca
mai
everything
max
wasn
##ong
##ren
per
sar
/
##ired
yu
stand
born
##hat
slightly
fir
hs
biceps
##en
overall
##ckle
exciting
trying
##is
##xi
woke
milk
confident
limb
##cic
con
##li
here
##amina
him
ana
##ball
lunch
tom
##out
fin
##ae
op
war
tense
##uit
power
night
awake
us
forward
ol
pass
eli
relaxation
friends
dancing
climbing
dizzy
##or
hope
own
peace
race
ste
usual
past
##ase
blood
wiped
absolutely
##ute
twice
##ned
couldn
record
gin
lost
si
triad
##ock
##ow
80
por
250
decided
try
side
burned
##ou
rate
rounds
lok
pl
tho
wall
ap
thee
pump
help
wake
kind
feed
car
sho
sh
13
ts
immediately
er
total
ant
##wn
holes
##ct
jun
watched
##cl
drive
r
stretch
ya
seemed
attended
dan
everyday
strengthened
bed
pr
definitely
someone
sc
##as
actually
dane
inside
30th
huge
##ptic
pulled
managed
classes
em
increase
##up
##ied
##wo
io
##um
dip
##go
skip
best
faster
reach
adrenaline
area
##mi
poor
75
store
might
thing
##ft
##ee
horrible
relieved
road
kept
stopping
gives
performance
far
tre
yard
later
active
k
normal
##ness
stressed
##sion
toni
picked
##words
yet
reached
focused
lb
bet
man
bell
##rs
ty
repetition
mt
add
hear
worth
many
program
empowered
##hi
room
stroke
nine
b
##dy
weighted
wu
da
red
##ple
fan
sas
ny
##ua
resistance
read
22
sleep
br
tia
##red
came
##cy
##ling
ow
balance
anything
ago
##pl
ge
trial
##sy
city
give
bus
##j
dock
150
amp
##cus
##ther
chester
##su
sha
gave
##uti
##hy
fails
hu
tray
break
wen
said
boring
movement
##able
sad
##ues
earlier
mind
rock
##mute
##mme
rotation
bn
##ely
hold
wit
##of
ut
##min
int
stayed
##uet
toes
120
##ome
activated
court
flexibility
abdominal
##ine
##pr
jumper
held
rowe
rune
fu
world
sp
nights
##rating
least
harder
girlfriend
tied
ji
##ii
degrees
killed
##amp
tier
different
##ous
rt
intervals
began
##vy
5th
say
struggling
ham
70
thigh
nad
hated
##get
lt
badly
moment
##nen
moved
##tt
##nes
fat
heat
##thing
shake
##be
series
tested
ka
strained
##ss
beating
tran
muscular
why
##wen
wet
##me
##cke
spinning
sec
##umb
##ent
ki
nap
move
tree
ga
cool
station
mph
##bo
year
owe
es
nearly
knew
part
buy
event
##hic
vo
##sa
##gic
##ave
realized
old
flow
##rt
berry
##oy
##kt
table
forth
probably
otherwise
call
paint
heard
sm
see
month
those
grade
##ls
avery
##py
##ming
pulling
##aa
lighter
broke
hut
remained
loose
ir
mint
##to
##ger
##ay
walks
000
##ked
health
white
making
hat
wore
quick
;
)
##0
##per
ag
must
phone
trainer
beautiful
ser
hip
certainly
incredible
rubber
activities
##lder
karate
pre
third
##rer
situations
capable
lower
ban
##lla
brush
participated
##xed
##ga
men
##lea
barre
group
challenge
##ories
##ged
##rd
sounded
hoop
followed
##oa
raises
ballet
peak
basket
ec
##un
ski
boxed
volley
badminton
cricket
beginning
performing
non
marathon
##sted
act
##ak
town
expected
beast
clear
sprint
slug
slower
explode
street
kilometer
##res
nothing
catch
##king
thirsty
oh
longer
slowly
miserable
wr
believe
##ining
500
strain
michael
##pel
gi
sumo
##che
%
sep
##wi
lots
twelve
##rg
things
sound
care
pains
gut
ara
kn
##ds
starter
fur
z
trembling
eyes
##uous
logs
##sis
##tre
flex
against
learned
exercising
similar
watching
tv
##im
##rin
throwing
pushing
##scu
##ete
curly
eel
limbs
##lf
mit
##lot
##era
pedal
somewhat
##tu
##way
finishing
bot
18
biking
os
cu
##cating
come
ea
quit
##kat
failure
basic
ru
terribly
##gies
exercised
sometimes
building
rum
bank
##rly
##ci
##ud
broken
build
truck
jason
##gh
fore
bea
previous
##an
ins
bas
matches
nobody
##rred
##eon
gem
important
##cies
meet
rally
##ml
##med
thrust
ankles
struggled
##ner
##hd
upwards
thousand
tea
dow
others
des
gets
dh
setting
ground
stress
nor
across
##ped
flew
gu
##ya
guess
boy
kids
double
generally
boot
regularly
##ime
##km
kinda
##ching
foe
##ain
steppe
flee
##ding
##ment
called
sap
om
drills
let
##ca
within
runs
via
smart
discomfort
mw
##ies
ama
##hli
##fting
eat
ware
bud
headed
interval
won
pressing
##iring
mat
tonight
##ith
however
remember
bath
star
clean
sitting
##pe
gold
ter
anymore
##ai
jug
loss
##la
tram
##pol
floors
wise
roller
hell
woods
##uta
yards
recovered
given
##master
skate
baseball
young
excellent
productive
indoor
ill
##ure
##ri
shit
dec
##nn
head
country
drink
##rou
mark
easier
def
##ini
##erated
lose
##oud
clothes
##hg
spot
content
meter
sexy
increased
between
##sto
##ppa
personal
lil
##tle
jim
tasted
sr
##eg
strongly
noticed
killer
\
board
db
split
##tl
slowed
maximum
win
mean
225
lee
found
beth
law
strange
stood
##ne
following
fins
rack
backwards
##x
fig
ae
tremble
nw
##yo
stitches
##mal
interesting
armed
##eth
guys
ing
alarm
wil
consisted
adam
sky
bunch
wow
impact
sent
ann
gymnast
rolled
curl
seats
##his
effort
acc
##tua
##tat
mae
mm
entire
likes
slept
##oc
normally
files
improve
rev
green
kicked
55
##ira
smelled
rail
tai
ridden
nak
lonely
##ik
##urs
forgot
needs
together
control
cyclic
breaks
looks
neck
bye
##ite
##ege
##tic
middle
yes
successfully
##ded
bat
wee
x
greet
##ull
forest
sai
##thi
nec
##eda
girls
wife
pal
##pp
small
##mo
##eve
mk
nu
cult
finger
ib
##ree
techniques
##ond
##hem
behind
##ise
met
ac
##ni
begin
gate
damn
ang
turned
wakes
raw
emptied
woo
black
##sel
##ece
kill
gone
james
longest
##va
inn
##end
loosened
##dra
mall
##ler
joe
vi
##ck
initially
member
college
alert
thinking
stroll
beg
purpose
##gizing
central
restless
especially
tad
enjoyable
ave
##net
14
itv
mood
joy
paces
throw
und
pleased
progress
revived
bob
lap
##hh
##ro
sucked
##nin
(
seventy
##gr
elliptic
pained
##hing
gm
qu
highway
##rring
john
##jo
og
mom
que
##the
equipment
studio
nervous
##mind
concentrate
wrestled
demanding
##fs
interested
worm
hurdles
##ice
cn
keeping
##my
ph
lai
despite
online
##fort
seat
helped
##rey
ribs
##sh
sting
perfect
nt
punched
toned
##mmy
##ity
style
mel
che
et
front
##rug
gotten
elbows
weaker
mostly
alex
gear
##cs
pressure
ip
inch
##ive
##ence
##llen
##yas
sl
##ti
##less
quiet
change
##ny
teach
lived
base
ore
lasted
vr
##rn
ymca
taken
##ido
beck
##ton
sin
hate
##nts
butterfly
abdomen
##ra
save
lin
suddenly
burnt
asleep
heavily
##con
menu
sidewalks
shortly
jam
environment
##fo
shower
dai
touched
alternately
functional
usually
raked
stadium
##ire
show
bay
mn
passed
curve
curves
##vr
jazz
##ze
rise
camp
uncomfortable
brave
missed
team
amount
um
ch
##lor
ass
jackets
id
punching
garden
##ins
positive
standard
wooden
wings
master
miss
16
=
assisted
close
opponents
average
excitement
consecutive
kay
grain
extensions
ring
engaged
shin
##lin
virginia
psyche
parc
buck
tee
hilly
runner
sun
conquered
leaving
headache
itself
goin
completion
800
compared
honestly
races
prof
drenched
joint
##tis
pumping
weather
collapse
waste
heels
thou
##met
sidewalk
trouble
outdoors
neighbor
hood
##uted
grateful
##1
##git
injured
fish
rests
235
overwhelmed
landed
180
##table
inner
bout
knots
wrists
approx
##mat
sweet
spaghetti
falling
effective
##ges
##rie
##chi
ss
##pw
senior
citizen
##ited
hoc
degree
seniors
##od
lid
17
near
food
##weight
foo
bree
severe
##na
##sic
##ub
##its
liam
cheered
##nig
asked
##ok
ev
practically
##lar
##eo
bump
ob
cute
coe
inspired
weighed
lip
vigorous
raised
thin
##ind
##fire
yer
bikes
##cu
##lom
##ros
stay
##stic
length
level
motorcycle
trails
din
monday
movie
ft
teams
##lled
##han
habit
standing
##ized
##cle
walls
##oll
##ily
##gg
##yon
lamps
##cam
##gie
##rdy
alone
god
net
seventeen
##haus
fairly
rpm
tow
blew
##dant
bowling
##oi
gained
##bi
buddy
anxious
filming
##tine
angry
##for
ended
##walk
rat
barefoot
##ess
main
shark
ned
maintain
carried
driven
experience
##ible
mail
##inn
rained
late
kw
tie
##oot
quad
seen
beaten
tremendous
smooth
tin
##nies
pay
##fe
plain
su
bass
ours
sounds
##row
works
army
##uch
match
gains
ono
##ops
torn
##nk
ee
bull
movements
##zzi
##omo
triple
shack
hole
silently
moore
thank
##rc
herd
toll
##ying
stil
##pen
newer
cheer
##act
vis
liked
saying
touches
fought
nowadays
##ssi
25th
##tee
tingle
##mg
fai
##tel
nee
dirty
qui
##atic
##mot
extra
mc
circle
tor
stimulated
forming
live
happier
aaron
##port
##ened
ton
secondly
flowing
pee
##dly
ask
talk
family
falcon
nest
gasping
##ere
upbeat
3rd
round
trip
ultimate
count
thru
fished
hips
vigorously
carrying
rigorous
benches
vent
##ill
beta
prepared
vu
surprisingly
wal
##wise
dogs
##ever
lou
decide
arrived
gears
##lk
1000
##ie
##ved
officially
perfectly
##son
tyre
##hre
summer
indoors
homework
boo
log
sam
ff
soy
mag
##ines
scream
confused
trough
28
straining
caught
heavier
simple
pleasantly
isolated
weakness
deter
thrusts
poker
monitored
ui
##form
##vious
##tra
grip
##rea
overcome
prom
##el
qur
##ater
##tet
variations
self
bells
proper
grabbed
##uing
tool
metal
carry
wondered
##sat
##com
ata
##unds
##ung
wah
activity
screaming
##dia
focusing
due
##wt
kills
##amps
motive
russian
actual
groove
sessions
##yk
possible
gas
##gy
##mous
suicide
var
##ia
cent
sides
enormous
exaggerated
##dio
lips
##ver
fits
jeff
pan
wrapped
185
4th
squeezed
##ech
hitting
##ug
135
##ors
##pres
sense
##ax
mad
##kk
release
military
tests
achieved
##ion
filled
hadn
##yana
##mas
##kar
##uve
##rien
##ka
##light
downward
intimidated
poses
stu
asa
difficulties
bucket
rr
##ley
##gga
vin
cause
decent
allowed
##eva
breaking
emotionally
absolute
##san
##if
##hc
thrown
bruises
safe
limp
##oro
based
lesson
##tr
cha
##gin
##ob
bedroom
chloe
##ks
bounced
##orro
flutter
women
##ices
lime
tornado
##ady
##rid
##mac
restaurant
hee
does
##ugh
##sle
older
joints
##ont
##mber
##lized
##tion
open
disgusted
courses
##oth
##gai
rice
nearby
cardiovascular
##pm
joo
##isi
wes
corner
tenth
please
##ate
struggle
parked
wandered
cove
connected
##rry
endured
prefer
dj
sk
##ath
##lu
##and
function
touch
##rot
##am
surfing
##ad
##20
snow
##sho
anna
fulfilling
handball
stands
leave
obstacle
naval
partners
paying
swiss
fort
moderate
natural
##uld
norm
##tics
december
gardening
wheelchair
existed
##quet
wait
test
bones
band
heal
##ping
dt
##nished
fees
nike
dans
employee
hop
typically
annoyed
glass
hive
##fall
ci
acres
##wind
peaceful
pinnacle
skirt
slight
waterfall
tour
del
##ppy
spencer
butte
summit
maria
bands
haven
shooting
passing
player
##all
lacking
rv
##nni
##eter
##ta
such
##bol
screamed
cup
backyard
fl
ankle
swollen
physical
easily
distances
traditional
follow
poll
snap
million
loco
taste
arc
naked
become
##oun
rug
##static
sales
boys
intro
##qui
leaps
threw
alla
##ef
lights
##abe
##tsu
animal
mach
tone
tap
##by
weaken
##bble
moon
horse
giving
700
##imi
staircase
skiing
increasing
##ber
wide
mare
outdoor
exhaustion
witch
ached
3000
##ek
mas
##hine
returned
##hua
continue
##work
martial
art
trunks
box
flexed
hang
sorry
death
scored
soc
rebound
##vor
##actic
bloody
point
bathroom
##ivo
##lous
coach
##head
eleven
kg
innings
ice
fly
todd
daughter
##har
relief
taekwondo
parents
##pu
##phine
nonstop
adventure
nintendo
switch
enthusiasm
ting
##block
tis
sa
dragging
##ahu
fair
agree
slopes
steep
attached
°
torre
pines
ze
hitch
##door
whatever
lane
##athlon
ultra
spartan
fields
shining
shuddered
engulfed
depleted
gross
aimed
quarter
patch
terrifying
aka
##ami
reward
lack
eu
##ph
##oric
toe
tender
plant
##sc
lev
sharp
67
crazy
temperature
higher
ryan
##mins
else
realize
sprinted
220
losing
##ha
levels
entertained
fucking
fists
tip
humidity
soup
loop
crushed
cinder
circulation
chances
alright
limit
attempts
none
##face
##ear
gan
##hrer
wander
attempt
wealthy
rain
saudi
graduation
swings
cai
avoid
##wil
worse
latter
hockey
earned
issue
##xt
dawn
deer
prop
ashamed
weighing
doesn
sunday
tata
##tem
threat
tame
##board
taxi
kit
palms
medicine
nov
acceptable
dropping
special
failed
##und
##8
extension
aba
aye
wildly
touching
skull
cement
rom
dave
temples
enemies
useless
kiss
hon
lying
fond
panting
sq
##ats
##avi
##eer
bracelet
jerk
waking
15th
gain
collecting
precious
##au
firth
marcus
strokes
washing
preacher
endless
ripple
##sco
lisa
pp
moth
gen
goddess
effectively
possession
eighty
##lite
fist
repairs
##iz
rolls
##em
graceful
tensed
muse
demand
coming
noting
rid
evenings
mei
##ssed
steer
exiting
wild
##00
##lts
##ons
##vio
##lab
plan
jared
horseback
north
##thes
shoreline
rapidly
rd
lakes
medium
##nar
lick
indo
##ru
disappeared
rains
repaired
canal
##free
##rain
##ital
cheeks
satisfying
6th
tidy
dirt
##uber
##ant
rides
quivering
ears
worst
stunt
##hta
sundays
sneakers
jake
kid
wwe
thrilled
##igh
##hood
cardboard
knocked
contra
rocky
safer
write
tourists
##tron
pray
##ead
torso
lucy
het
rubbed
straightened
hair
wins
##ddling
cy
ways
squeeze
counted
loud
contents
traveled
grades
mum
dollars
stick
rapid
realised
cam
approximately
trailer
everybody
##aks
##vic
popped
125
outing
pierced
carrier
beetle
houses
ak
bing
nave
wagon
lia
virus
return
paths
##tou
knot
##var
##nh
device
prayer
##ume
alf
rite
model
##vered
watches
accent
instructor
##pi
spouse
##key
##rise
##ac
##vo
denim
pea
##pole
tournaments
doubles
tan
##nis
singles
louder
##cans
##ff
flip
gp
sant
jones
backs
##vre
rings
alike
##roi
##dge
pumpkin
notes
##ials
healing
pm
characters
signed
robe
##owing
messed
buttons
ness
##eca
luke
abd
##yes
startled
knuckles
basement
##ye
pot
handful
ares
##sch
##bil
##ars
check
tab
likely
##nder
ford
shook
adulthood
pep
##ople
fulfilled
waits
##para
##try
pillow
uss
##ual
##rk
##md
##rse
students
##uck
aide
episodes
##hee
tons
styles
##odies
heights
guns
struggles
##sca
##aling
exam
##pt
gunner
ceiling
above
cheers
##dan
##iel
kings
relieve
server
progressing
##lier
nodding
neighbors
apartment
wished
fis
##rts
whenever
##tter
6000
achilles
600
listening
##da
reportedly
hotel
juan
tempo
strangely
roundabout
fife
##los
ike
july
dat
cleared
pleasant
las
direction
spa
##cial
noise
book
edge
beginnings
inc
##aging
crawled
distracted
cart
49th
flight
##eles
thankful
bags
groceries
attacked
lieu
weary
task
preserve
towards
##ist
changed
outs
##ede
encouraging
downtown
company
knowing
perimeter
##front
subdivision
##dm
unusually
##lli
##rkin
mission
##ols
worried
stimulating
downstairs
wai
taking
mental
reasons
hello
trek
lie
husband
appropriate
reduce
##len
orgasm
eng
frs
lively
leslie
sans
wearing
loaded
backpack
brains
##ough
source
honest
silly
operate
thy
tackle
target
mora
treacherous
##hiti
##fr
farther
worker
##jing
frustrated
katie
police
proved
bro
##je
mass
superb
october
jin
##hin
##card
##ang
disappointed
seems
unstable
solid
##hey
bruised
rachel
onto
##ses
slot
##ean
bai
ko
shelf
##sk
##pit
##ical
bitter
stage
hears
##ane
builds
space
angel
talking
##yn
##lp
##cal
boss
page
outstanding
random
bricks
jonathan
cable
shifted
##yd
aiden
##ored
bra
tingling
##ap
##uis
athlete
##aea
cole
saturday
gt
remove
beer
nm
##with
bach
wouldn
snatch
required
safety
monitoring
sy
##sten
crept
##can
roof
##fect
thousands
frail
##ein
pulls
echo
lu
##lls
apology
cs
bumps
constantly
gaining
jenny
##non
throbbing
moe
##nock
pounded
general
upstairs
focus
wear
load
130
controlled
##ev
ones
mia
##rent
surgery
##nic
promise
11
24th
12th
shouldered
mute
packed
pont
repeated
sheep
club
##iv
instructions
swing
impression
##fu
drops
##nti
##ip
skill
dong
##hal
##vius
lucas
hans
##ys
##icia
pocket
soft
themselves
##was
determination
supper
limitation
holiday
niece
donkey
##sta
##irs
business
shots
revolutions
breathed
cringed
retirement
hanging
desire
dar
lions
hers
##mos
vomiting
##una
lessons
slap
tau
glorious
##oat
##val
throat
slick
destroyed
scratching
snail
twists
differ
understood
biggest
vital
##ffe
combat
##di
##ele
##nte
focuses
warfare
##rre
torture
##metric
circular
##ises
insanity
cooling
advanced
concentrated
explosions
magic
##rman
##os
variety
hardest
plus
##avio
harding
volume
nutrition
stern
##tie
ava
size
decline
prepare
stocks
##ving
thirst
##vara
rap
winner
struck
breaststroke
drug
trials
diving
uno
##hs
lear
heaviest
favour
flat
remembering
##tyn
instructed
slapped
##hon
##pressed
impressed
eye
ren
continued
##ught
accomplishment
stats
discs
number
205
scott
sixth
##ject
drum
breast
scratch
##cco
##man
adapt
##wr
spite
difficulty
##ening
adjusting
##ische
pose
chan
##leg
enrolled
graduate
stroking
bret
revealing
hopeful
##ings
vibrated
##eal
@
mis
##vet
detached
soothing
char
warmth
winter
funny
fabulous
intensive
##train
workshop
administered
cord
allow
##aga
##ched
##film
skin
mediation
tony
##bu
##ian
heated
daddy
caf
kim
##kh
sv
##ana
calming
injury
history
disabled
switched
pair
bending
pants
##joy
owes
app
mobile
mandy
##cin
sighed
facing
pet
token
island
graduated
sing
cheerful
mar
pali
snooker
final
lined
basically
##ics
woman
athletic
fact
algebra
##ih
ben
breakfast
nod
functioning
##sl
automated
blocked
bt
##haling
paper
aura
audio
##shi
##eld
fever
eating
##rke
dancer
cis
involved
##lation
dense
##ios
hurled
wheel
##een
tightened
situation
ames
downs
accidentally
hook
growls
trees
unemployed
overwhelming
living
experienced
160
improving
crap
storm
##ach
andy
types
emerge
lobby
##kr
##nir
stare
sequence
soldiers
motel
nur
olds
books
anyone
##uche
sheets
sis
rubbish
##ahl
rather
##ulf
lucky
disgust
carts
aus
blessed
hare
grant
##most
bonnet
laughed
estate
##fy
vs
remembered
##lev
scraped
##oes
grows
sleeping
jp
piece
##rri
nut
##ric
##ional
##us
##top
sen
intensely
delighted
letter
companies
property
##gling
ahead
mane
causing
votes
buying
stays
integrate
##sb
##lt
scared
mon
##icle
est
slipped
witnessing
tak
fight
fingers
##nting
##azi
cut
##ressed
routes
dev
##oured
##les
##oue
windy
##fl
extended
##cas
boosted
happily
mani
augmented
reality
fence
flu
beans
empty
opposite
##ush
rai
consume
coiled
counter
centimetres
mab
neither
##oit
stan
parade
sleepy
places
##edge
##ral
##ame
suit
coaster
netball
wii
michigan
##sd
useful
public
farmer
yd
pushes
dramatically
cleaned
exchange
##ibe
beam
firm
wight
competed
competition
sites
jennifer
##av
finer
broad
##tain
##balance
glasses
banda
softball
vampires
leaves
hydro
##nas
sabre
##chers
archery
sits
le
calls
fourteen
monster
##yi
knock
saber
hopped
frog
##thal
breakdown
parallel
alt
case
tech
##iques
##not
##ene
weekend
shift
gonna
##ined
##uo
recent
psychology
switching
##late
##nb
##ves
jamie
shia
##tracted
incident
lone
tastes
boat
##ten
altogether
plates
##plate
caden
##za
##mb
res
##ound
name
changes
depressed
basin
stream
replied
pink
##gre
##hm
ridge
valley
hal
phase
tunnel
raced
loft
##gn
##pie
heavenly
q
cone
##ky
vest
##sg
##ah
moi
##nta
beyond
scenery
##aid
fix
pat
##eke
den
##ience
hourly
hm
mont
mourning
secret
mild
concert
instantly
professional
joey
##pet
##iti
##bill
seo
tires
coordination
nan
##cous
contact
paid
##q
snack
##bl
seasons
moody
fried
##ours
champ
mess
frame
##cat
points
evan
varsity
stale
vitamin
##ney
##ab
##uer
compelled
celebrities
competitive
plaid
plays
sixty
seas
##sons
swelled
tracked
consider
type
rocked
site
order
##ori
semester
pia
##uh
sarah
stuff
wave
##ki
##rip
pier
steady
##vant
##rom
##nick
loading
freeze
##ote
lea
reluctant
col
fra
laboratories
south
shaped
240
##set
##oss
kilometre
reg
certain
##while
bursting
king
bigger
400
sea
enthusiastic
##tive
lead
metres
unbelievable
ali
##ttle
floated
yarn
##ool
##ym
##pio
acre
##ens
##onal
phi
tall
maintaining
believed
anti
mentally
formed
boar
##sit
proven
retro
##sp
##ect
##jack
##ets
##ata
creative
acted
##iy
jacket
##ord
##ina
##rily
talented
lazy
horizontal
rugby
bounds
emi
idea
20th
lesser
extent
cf
yellow
##balls
##cie
sci
regular
##ma
exist
##encia
observe
sixteen
mead
##rger
reading
av
afford
##kin
smells
##rte
rights
coop
##ably
butterflies
wing
substitute
##cher
interview
wish
winning
##rth
##yt
weir
elevated
choreography
##ena
personally
butter
demonstration
smile
practicing
participates
##ui
##tro
##bly
behaved
wound
##fully
lily
understand
##oles
##ingly
jessica
furnished
ship
pairs
##eni
##rting
##ser
static
problem
massage
bamboo
plants
##hear
##sed
thor
users
##rad
tighter
tim
cycles
shivering
boards
magnificent
##just
seem
somehow
dangerous
ascent
waited
7th
reverse
afraid
lunged
ian
becomes
##ace
##iter
dried
feeding
solo
heel
steward
ce
kam
##maker
goddamn
rita
gray
tb
tar
##oped
pig
highs
elevators
##ast
punches
##bing
attack
apparatus
seriously
serious
##rac
inches
surpassed
pole
range
conquer
satisfaction
achievement
##hei
##hone
##edes
##rat
scouts
nick
##eno
eva
tournament
sand
##ile
##tom
friendly
below
##mit
sb
himself
##iled
dollar
album
hung
##oe
computer
wanting
remarkable
##une
martin
percent
minimum
find
responsible
promenade
##win
##iss
##ße
hall
covered
grow
rudder
circles
steering
paperwork
##ade
slack
##wing
##chin
##acing
optimistic
½
pausing
cat
christ
##mp
plenty
helps
junior
everywhere
##fest
loosen
adding
weigh
##ove
##etti
hannah
lame
awe
##som
actively
acting
##rst
panic
##hn
kicking
seth
raise
##bro
##ws
tutor
##ial
##isse
monastery
prefect
inspiration
mobility
##ility
arts
gradually
child
##rem
wrong
withdrew
yourself
yue
##overs
china
draw
##pes
##dity
moves
busy
yours
consists
##cr
##uc
##iating
##uil
##lan
##hl
maybe
##nce
courts
gymnasium
ke
##tan
sports
university
blowing
##ried
sink
##till
heath
##wall
backup
rehearsal
dvd
conditioned
cheerleading
countdown
stepped
huff
puff
##vis
conducted
psychological
inwardly
##bs
cho
tal
bun
##gee
##bar
##ras
##yed
bullets
##ide
cale
panted
##taking
lust
knows
toward
##cent
counting
awkward
trevor
adjustments
relies
unknown
numerous
regret
decision
faint
rocks
cramped
##gl
fran
rig
severely
created
##cuit
cindy
tc
shades
dull
##ake
##aking
rein
##nally
mexico
##ement
repeating
1a
tome
cooler
##uder
kendra
##org
##war
shuffle
shuttle
coughed
mitchell
ropes
stole
laugh
##boy
##unt
garage
##oor
##rner
cowboy
roll
##lok
beds
##astic
mouth
pitched
##zily
counts
tightening
person
fourth
md
theirs
infant
simultaneously
mono
circulating
post
##par
##tum
improved
billion
##imeters
constant
throughout
##sti
somewhere
brutal
further
embarrassed
segments
portions
considerable
romanian
instead
dedicated
leisure
pena
##tos
canyon
##5
biker
##idi
wonders
##leton
sandwich
yell
defeated
inadequate
pop
helpful
perform
tuesday
rested
##rangle
carr
anticipated
pokemon
shiny
giant
goals
doctor
guilty
large
trash
##ows
forever
fired
spirits
perhaps
aggressive
##odle
planet
190
motivation
invincible
position
##pal
##bha
##rti
lightweight
nam
##ask
regime
chair
ted
##ious
##fle
centered
lifeless
sensation
enjoying
tighten
cobra
lacrosse
derby
washed
cars
##bee
##log
##ib
intending
logged
alternating
bounce
slowing
belt
kicks
routing
##hwa
interest
party
stepping
elevator
period
rewarded
atmosphere
rower
##ew
songs
thai
batman
squad
elle
halfway
nylon
boulder
squash
paddle
##water
##int
##rup
##bla
facility
skating
fours
cleaning
kitchen
