@@UNKNOWN@@
i
.
[CLS]
[SEP]
felt
and
the
my
did
a
for
##s
was
on
feel
it
"
of
##d
,
just
!
in
##t
to
minutes
##e
##y
tired
but
miles
ran
so
'
##ed
out
##r
##er
##l
w
30
##g
##h
##k
an
walked
at
f
hour
after
t
workout
l
en
$
am
##n
ups
m
##f
sore
exhausted
very
good
legs
s
like
are
is
##j
th
today
3
##w
##4
up
##x
fe
##es
tread
20
##gi
push
##mill
##o
##ly
##zed
5
one
really
two
10
e
great
mile
-
##q
ve
2
me
we
o
bike
do
now
went
#
st
ex
y
(
1
with
that
yoga
##3
squat
were
##ing
d
##m
he
played
##z
%
*
##9
weights
##v
had
sets
ju
this
al
be
15
as
more
@
##5
re
three
arms
all
g
##a
n
##8
^
lifted
ye
run
##c
first
class
4
&
50
walk
leg
r
<
##b
go
b
gym
##p
[
min
ti
##2
afterwards
strong
wo
rode
breath
h
ha
wa
not
##st
got
around
##7
get
)
some
##ll
you
back
exercise
45
##re
##ted
ho
hours
##he
##ng
swam
##u
:
q
100
minute
##i
##6
ref
doing
j
p
li
x
##ld
>
elliptical
##resh
##ups
##0
five
body
shape
when
then
##ated
have
relaxed
by
’
half
laps
sit
about
##ve
ten
press
mi
jogged
##lt
##th
too
##in
##vi
bench
no
accomplished
##ce
##ht
weight
morning
##gor
work
from
se
di
jumping
running
##en
mu
day
##ke
chest
cl
ne
little
hurt
hi
?
jack
real
mo
could
during
time
weak
##ea
took
second
##ts
hike
finished
completed
;
jo
##le
fell
muscles
bu
u
us
##me
fr
wind
##on
or
##nd
##lly
##te
they
set
##at
fee
/
##ut
40
dumb
fi
tt
ba
z
going
##ou
##ps
only
end
she
ar
sw
gr
happy
te
25
ab
better
af
tu
6
still
##fe
rep
##bell
long
hard
co
machine
##ft
lifting
basketball
feeling
sweaty
un
over
##nt
##de
tr
ed
walking
her
##ch
bi
spent
wi
pull
abs
again
ea
ou
##rs
used
ll
##ry
##io
##ty
##wr
because
##ee
can
ao
aft
thirty
mill
##al
four
need
##ght
also
pl
pu
tennis
##ot
his
sp
v
##ter
##rp
##je
made
tha
shaky
ev
crunch
##gs
##gh
much
down
energetic
card
worked
##wl
ee
##ks
even
burning
jogging
bad
sh
##ss
sl
c
##ck
ja
than
if
##el
twenty
pr
how
bo
##et
##wt
9
ro
60
##ig
through
##ees
plank
lo
k
outside
##gt
##ua
our
game
la
energy
8
##od
ni
bar
fire
off
##led
times
dead
zu
pool
br
hot
tod
na
yo
##ct
el
##rd
im
##ti
du
ride
arm
actually
com
may
fu
##fs
track
dog
cr
video
##mba
##ds
##ur
lot
every
##hg
mor
##ls
ge
##fr
stomach
##se
##fi
##jn
lift
bicycle
##pe
myself
ad
##im
feet
##ven
##it
ah
ag
never
ready
hu
##hs
je
exercises
##gg
while
##wd
would
yet
goo
pumped
##dd
whole
ot
bit
ball
training
situ
park
tried
suddenly
##ha
home
him
##js
done
gi
ae
##her
##xt
ma
fun
##sr
high
##ked
##rr
##tes
##wn
##kt
##we
ty
has
##sl
##be
##ring
pe
jump
##li
es
0
free
worn
few
ok
its
fresh
##lr
##ns
six
##ting
po
getting
heavy
er
ki
amazing
finally
almost
pretty
##om
le
lit
de
##red
##ey
dd
##lift
dad
##rt
fast
ac
last
heart
##us
trail
there
ta
fa
started
##ge
hit
##lu
tho
##is
##lf
##sh
pre
kn
curls
stationary
##bic
fl
##lk
neighborhood
##les
##ju
tire
##sy
dr
proud
##ln
full
act
##ms
hr
##ay
fin
always
su
pounds
12
each
ng
excited
aero
being
##ol
pain
already
##ar
drained
km
em
##dy
##lo
any
ff
once
totally
saw
will
##ell
stair
rope
swimming
##mi
##un
##ef
si
##fo
ii
extremely
##ri
sq
##ew
way
another
soo
##ie
sec
wat
them
con
pi
what
brisk
play
##rn
##hat
put
##ir
200
sweat
killing
##oy
au
sc
##hi
7
fine
yesterday
your
ever
##day
tn
##or
steps
##ust
ce
here
ste
ri
ear
barely
presses
kick
lung
##hed
other
quite
##hila
mil
##mg
both
eve
##ne
light
sha
##di
##il
exhaust
before
##ib
##id
aa
super
eel
##ill
block
##out
right
##tt
feels
fatigue
##ih
##fk
tri
use
god
##dt
ra
mai
numb
new
##ent
##llo
##ow
##ver
ga
##wa
vo
##3d
burn
cycle
##ute
fitness
##ra
ke
tre
knees
ss
sweating
soon
##rg
wr
ap
where
##tl
ai
##eg
##lp
##ally
##ging
##ex
ol
spin
##sg
##ho
terrible
since
until
pace
ji
##ok
da
who
ts
il
afterward
hs
als
##ful
##rh
sr
strength
hand
##ca
##tu
eh
week
##vs
danced
rowing
straight
##ci
most
which
##cl
##has
air
bag
top
sf
warm
av
##rated
ec
##hil
##ger
fifteen
left
##ong
tb
##mo
et
##py
jumped
wen
##ged
##pl
son
##so
performed
sur
##su
pound
dance
swim
##oe
powerful
##ni
##bly
##fl
working
tough
start
warmed
##ul
##ai
##ky
##ead
healthy
##mp
make
own
##ro
water
nearly
completing
maybe
##ax
##rer
35
##fer
though
##ec
ca
nt
##lb
completely
calm
shaking
##cy
##ws
big
##oo
ci
##nl
upper
using
wu
vi
thought
hurts
##ij
shoulders
same
##wy
##ak
##rk
war
stairs
beat
##ys
##bt
oh
motivated
##to
##tly
##ic
look
old
breathe
pro
breathing
##way
##ad
##his
wei
##ome
red
butt
##rf
sa
ing
##ue
take
##rl
jelly
fir
pa
thou
hundred
##rst
refreshing
##box
##hill
friend
next
lt
able
int
##ied
kilometers
nice
bored
days
##ble
calves
##sf
short
##la
##tel
ld
difficult
fur
##cu
##hy
##ning
##dl
add
rs
these
relax
core
##of
don
ny
##ja
muscle
lu
##kr
well
##hd
cycling
ph
row
##gy
##as
seconds
pressed
stretching
climb
ck
##ff
milk
far
##lke
see
climbed
rum
know
tom
##haus
aw
afternoon
early
sure
less
##hl
per
##ug
sat
bet
##rea
##pr
ins
sometimes
##kk
die
bud
##hen
mph
ow
ut
fall
##dr
##gis
##ded
hurting
##os
max
thighs
ak
eat
stronger
##em
22
relaxing
keep
##ny
##ae
sm
power
##ung
step
##lates
volleyball
awful
##nh
##pt
thing
##ko
satisfied
easy
ate
##oi
##an
youtube
best
##sd
##am
##hr
gee
##hn
fit
speed
sg
##tua
along
##nut
##for
cp
os
ya
##mt
road
man
lbs
##pp
pump
##cer
##ckle
stiff
##bs
mini
want
intense
##uld
sud
limb
wal
ko
nl
##iy
nu
##ag
fifty
##one
gel
lap
90
ia
##md
place
having
alone
past
por
glad
evening
forty
##ta
different
##af
##sc
##ii
##xi
probably
##ways
vu
##ac
wit
##ere
met
tel
##ah
##ev
##zi
blocks
football
inside
ser
##our
ale
finish
##jk
fk
ache
away
00
##igh
low
ter
ka
should
knee
sy
tim
##ek
va
##hing
##tee
session
routine
usually
noodles
ist
##fed
##cise
cal
ass
cu
doin
makes
og
extra
##fa
aching
definitely
##go
op
##hey
goal
tomorrow
##hp
stretched
##hit
##cs
daily
##no
looked
ob
non
mig
hills
##wu
twice
##ery
##oj
without
physically
something
goin
##hin
tight
entire
flights
complete
faster
##ess
##hu
##wi
pushed
##ba
##vd
##if
##ga
practice
ill
let
endurance
##iv
head
sk
##1
plus
men
inc
##qu
house
mountain
sick
##cks
##hus
##ned
।
mr
##og
##uh
challenging
lea
quick
cold
ch
bus
vr
io
wow
wil
##bbly
##nk
fei
seemed
##fy
ku
riding
rec
##ple
##wen
everyone
##ren
mk
##op
##oh
rr
said
golf
##ep
##ment
lifts
##au
playing
thousand
##ely
##lom
##res
##sa
qui
river
res
hq
##tr
slow
##ate
usual
dl
##av
##ye
che
reel
##use
lake
field
##sel
damn
##jer
gt
##uts
##ji
##nin
##vy
dow
several
meters
mp
hands
##hem
##lm
ft
those
##ao
nw
ds
qi
starting
beach
nature
##ux
dan
##ree
##rb
##km
ns
ike
terrific
rough
slightly
comfortable
300
years
lower
##ore
##der
enough
##per
sd
##ber
mat
##rm
##war
stil
overall
doo
dt
attended
nap
##wc
##bo
##ide
bed
hk
love
night
hungry
##urs
ua
rest
##ron
circuit
##kou
incline
machines
##ze
##cal
##ine
eli
##ase
shoulder
dip
flexible
##ball
soccer
skipping
##ike
thin
fill
race
pick
school
##rly
ct
##po
dying
##yi
ml
##yed
wiped
las
blood
course
tow
##oin
beg
everything
wet
bk
##da
floor
##ired
##jm
##nr
##king
owe
hal
##rin
yi
hardly
##si
ze
bot
ein
##ges
##ret
ry
ir
##kki
form
alt
##yo
##med
awesome
##ten
nr
ham
kettle
##xa
##ough
##zy
##co
many
##rong
hut
##ap
##ating
shi
##ers
##ved
##gu
##zd
wanted
cy
intensity
gu
##bi
##up
rt
sas
mt
150
total
tie
om
##bu
ur
acc
ago
##het
##ste
bee
##est
##oun
##gn
mis
wonderful
say
##ond
break
##ub
needed
mind
enjoyed
tea
##min
boxing
ski
barre
bas
##ez
##yer
000
##met
##rou
calf
became
painful
catch
mom
stopping
##sp
##ost
mike
lunch
solid
nine
often
rd
been
determined
##nn
job
fucking
tee
##vo
dea
gives
ie
##pu
dai
skipped
##bl
##irs
##dly
um
sho
##ried
##yt
shot
hz
ali
ant
##ab
5th
##low
hope
local
dirt
##lea
read
truck
dizzy
##gr
nor
##aus
##tec
hill
##yn
consecutive
hen
sb
##nce
##fu
sin
##ply
bat
kinda
absolutely
weighs
##how
ned
##ml
lb
##pm
gust
worth
rate
eight
weighted
##gf
star
##ia
eventually
25th
##wk
##gb
##ner
##kle
bea
##ete
##uo
drove
##hh
year
##cle
rv
##era
ked
der
mostly
although
quit
ann
##een
##nes
##qi
near
##cr
pass
bei
##rc
##und
alive
games
##mos
mw
##ets
##ull
##az
bs
immediately
##all
50th
loose
boot
##pw
nut
##ugh
##nch
hip
helped
group
##ories
dancing
must
tin
meter
racing
##till
##ness
##ki
fx
hood
##mm
wai
##art
phone
sam
spend
least
##hc
##ik
mn
yu
##lla
sleep
##ount
menu
horrible
##sted
##ure
tor
und
heal
ib
dq
##ej
##ile
bn
lev
square
##ward
life
ui
##ous
##uet
18
ren
sim
##um
stu
luck
13
people
##ith
belt
##ite
##ive
jun
flee
under
##ud
##eo
##tter
incredibly
pow
record
mon
ben
began
##ock
##mes
twelve
think
pd
##na
cm
250
decided
##uf
across
their
making
small
sounded
stop
qu
weeks
80
toni
ms
##ound
##tle
curl
cut
##sk
##uw
##com
##wo
tad
friends
td
somewhat
##gai
into
path
everyday
ana
foe
actual
earlier
lost
##ual
##ion
lil
foot
##ix
##cm
confident
##fen
ama
practiced
##hly
##dh
came
awake
late
rock
peace
pulled
##ling
trainer
##ptic
##the
nee
relaxation
stretches
stretch
chin
volley
##oa
##pes
##sm
rex
##vin
##words
harder
##rds
##oss
forward
¹
⁄
₂
world
2a
##tre
pp
##wer
won
raw
##ies
##uc
later
miserable
##gin
normally
sol
poor
##fin
##aj
hat
##oth
##ov
sun
##dden
ata
##ser
##ually
##ving
buy
till
##hre
##lin
##hos
del
nec
eu
##eh
##gen
##yon
##rse
rig
##ave
might
##pd
##lles
dal
qc
soy
##nde
##ip
##uit
challenged
pt
##hes
forth
ic
car
##mat
fed
prop
burned
uc
lai
##ming
try
##hic
net
empowered
##uz
##ob
thigh
rack
het
stand
que
toes
rn
##ding
##wat
##thi
##bal
sen
curled
fantastic
gold
##gl
##del
watching
##are
##va
okay
##lot
##xy
##rel
##cke
##ped
fan
##den
wasn
##ain
##tic
ang
##ove
come
##tf
fig
nc
balance
##ush
move
##ku
rev
realized
ribs
##oon
##uy
cam
doi
player
watch
##lar
cs
nod
##zh
##con
nk
test
especially
##ton
tis
mean
tna
##ont
##jo
shu
round
holes
couple
kids
##mu
help
stress
id
give
##oms
les
bay
##eth
##ins
kin
within
##cc
cross
ip
##ass
ted
pri
weightlifting
##cus
increase
ina
##most
ban
hold
however
flexibility
##eb
participated
thee
months
hoop
##air
raises
xl
##ping
held
skip
rowe
##ru
active
cool
tia
looking
doe
##vu
area
dec
relieved
vs
crazy
bf
ore
dh
tier
##zu
adrenaline
##tis
longer
##shed
reached
tal
performing
beginning
##mb
##sat
led
anyway
broken
##by
bra
##dm
nothing
loved
##rating
##xed
stole
travel
##vr
nile
except
##tch
front
hug
##git
##nte
dos
marathon
dir
clear
lungs
increased
wc
##amp
##ays
ps
##rid
control
store
moving
miss
rug
##unt
cult
rat
sep
quarter
ring
##vio
##gue
jar
500
moe
225
trembling
##eed
bell
##jal
seats
##qua
why
##ntly
program
##ear
tak
##ime
##ying
##old
##cd
##rry
gin
bp
##ese
practically
##tea
jug
##mc
##ching
rod
##gat
##gle
itv
55
bio
##ther
cn
biking
##sed
##iz
##cis
##tur
##ka
dam
lee
sad
neck
tide
triad
tai
##men
instead
constantly
##ige
gen
wee
##ern
dock
ru
seriously
##ist
##xing
##oll
aye
instantly
##oda
##jin
##lls
##uls
mit
joe
##rti
grew
regularly
percent
mint
##sw
##nc
restless
become
city
thinking
##kin
hell
otherwise
trip
##able
walks
jin
mine
##yu
boring
##lc
remember
someone
nat
white
music
hop
##tin
kind
lasted
##get
rubber
regular
health
easily
bal
4th
##ight
movement
ice
chester
##ical
giant
##chin
##rted
soc
mach
ton
master
headed
rows
11th
gut
##ken
rotation
##val
interval
yoo
##ei
standing
camp
rub
wait
##gm
shake
##gged
tram
##pol
positive
roller
enjoy
##uta
hiking
basket
boxed
##imi
stressed
clothes
picked
woo
##win
##ind
yard
sprint
##uted
drive
foul
##time
##nni
pg
reg
von
##try
tip
slowly
pal
##mx
whenever
prof
tested
somehow
##ffi
else
##des
sent
fife
limit
breathless
killed
##eti
##rma
kilometer
bloc
due
##ox
pep
##nu
##ult
tone
800
laos
##rdy
##ire
seven
##rio
##ched
##ick
wah
intervals
between
fails
##sing
##ele
##rat
##ph
roi
##nb
##kh
explode
thirsty
##nig
slug
kept
##ole
street
boo
##rem
##vet
usa
pedal
das
75
##ach
black
kilometres
woke
million
##ya
hp
3a
focused
bow
##tm
##rre
ono
alf
##lete
sea
##sin
bt
##mot
##ary
##ett
bye
##rie
room
side
classes
hee
app
##aa
rai
cha
seo
##lled
found
hated
##0s
##sis
jill
hem
70
##gre
wall
anymore
sul
brush
book
##mere
supper
##mer
##oed
struggling
bunch
stupid
tighter
soft
strained
pee
obe
thick
tv
exercising
nic
##ues
mode
truly
fat
biceps
##sti
cubic
##eve
trying
toward
east
##ira
fully
##bing
suv
fort
##ius
##ant
exercised
maj
rpm
def
liter
##cic
cw
pak
##umb
rail
hog
##gly
spinning
nike
##pf
approximately
##ady
mer
##fide
##eal
resistance
hum
##ici
##gut
ryan
##cie
kid
##hm
part
feed
##igo
ara
gonna
##nty
##oma
pas
rf
##rta
joy
gus
beck
failure
mad
lay
beating
##rth
anything
perhaps
matches
rear
##ler
##yas
##rate
han
lush
gas
yes
rally
bro
including
taking
##net
throwing
##son
bsc
##rai
ached
thrusts
wake
gets
##du
##overs
##rde
##cies
talk
eng
towards
mood
ul
ultimate
##ise
##front
##ught
pea
tonight
walt
##omp
mild
##ert
rather
##gee
aj
tell
sal
fai
fits
pleased
progress
tech
nervous
saying
aim
##gal
lighter
hear
broke
loosened
called
straining
##inn
lie
##nx
##lip
##ics
pulling
##bh
1st
##nz
##dry
##lor
lots
##ake
kat
##har
##do
stopped
burns
style
pin
event
count
experience
close
fight
base
##ool
glass
uh
##lle
nave
managed
baseball
##gan
environment
paying
rounds
##nds
##ppe
##chi
court
jam
hate
##master
actively
cricket
given
fly
skate
##gni
##top
expected
##sio
##oke
lose
##iol
grateful
productive
shit
slower
##fia
neighbor
##ami
##eter
##olo
reach
##vel
tied
##rod
girls
girlfriend
following
jim
##erated
cis
##its
67
sex
##ahu
##ppy
runs
turned
rich
##end
##ail
lan
embarrassed
thai
##cre
gave
##oc
neal
bala
##mis
mule
tar
wed
pike
##ches
bought
##ker
##dia
ek
joints
rune
##ida
caught
girl
talking
sorry
aba
##ation
##ross
##pic
oder
dollars
##fm
##pa
rib
gui
##pta
##ump
country
wan
##eda
##sie
##sts
alla
lin
##side
apr
ile
##fat
indoor
final
town
pm
##ters
235
##lie
##tem
##sto
does
personal
##ast
food
##eak
tires
clean
rare
shots
##gie
spaghetti
11
effective
liz
##fly
##weight
##jing
##hee
ask
##sb
##ats
weekend
things
##tron
number
##zin
##tte
##lon
##hone
##fted
rise
##ona
against
##tc
acted
series
giving
curly
##ral
##aba
mm
knew
ones
##bery
##qui
armed
##lite
muscular
##tra
ky
##das
himself
effort
##tan
##scu
dem
##iny
weir
fog
fran
bones
eleven
##san
stat
summer
tall
rid
##wil
nj
cyclic
##pin
cheered
##thing
horse
##tain
coming
happened
pounding
##uber
worker
fairly
##aks
tour
ind
kicked
##int
imp
##cb
##df
##ffer
kg
##lal
##bed
##tion
nes
didn
##nded
½
trial
entered
tran
pat
seen
beautiful
jp
gina
burnt
level
pains
station
##hir
blue
finishing
sv
95
##iff
##xes
fair
flow
##gated
##mal
exact
roughly
ks
bricks
##wg
guess
nak
activity
ud
gia
##ife
hair
kw
##ibe
art
##yte
sitting
##6th
third
##yle
north
##put
table
##hrer
##nis
yen
living
##fc
age
match
vet
##ume
fia
nz
##lda
funny
##uge
ax
meanwhile
mal
##mute
nest
##ose
##jou
##ale
##aly
sides
##tz
ally
month
wing
##rug
ain
site
##cia
quickly
team
##ma
hon
xi
falling
lip
##dc
mental
wore
##wise
##die
please
##sion
##len
tree
np
friday
boy
##very
ware
##ard
##pur
initially
arrived
##dra
stroll
##kes
mx
gp
mab
##esh
##ene
##ato
extreme
tan
##non
returned
##dan
##unds
los
bout
steady
vin
##ingly
jason
hay
##tam
missed
##uti
##iter
##kos
##aday
woods
##wing
outs
flowing
##oped
seem
mod
sucked
##fle
enjoyable
abu
law
alto
##ica
##gizing
14
grip
liv
##bf
lid
steppe
1000
target
##bor
##vre
building
holding
##vor
bey
##ssi
##wee
##uous
tingling
heat
call
songs
##tics
##tical
##act
pained
halfway
mice
##hid
minh
ground
##rch
prefer
sar
worse
seeing
club
pleasantly
jake
endured
weigh
##efe
thy
dozen
abdomen
##sse
everybody
smart
##oked
##fort
mid
keeping
throw
##mmy
vol
degree
##gned
train
tremendous
##cam
##kon
##eric
##dio
capable
##rdi
yer
dee
amount
uno
inn
rom
##ions
middle
sense
##ech
remained
decline
##rey
eyes
elbows
todd
##mic
earn
intimidated
##dek
##asi
cell
sap
flex
dell
pose
kit
##nda
emotionally
rm
beth
##hri
meet
activities
cry
challenge
utterly
mentally
nas
##oud
bel
##tting
improve
##nally
carr
corner
##gong
##omo
nearby
line
##ache
function
##osi
annoyed
worm
wise
parallel
simple
##bol
##tom
followed
physical
##sit
##fb
butte
such
passing
una
san
win
##che
##head
240
yards
others
garden
##han
##orro
moon
floors
wide
assisted
possible
passed
opponents
badminton
average
##hua
hang
death
extensions
shuttle
barefoot
##ors
drenched
loop
crushed
cinder
heels
##ghi
##sai
##wall
performance
ala
finding
##pre
psyche
drink
sidewalk
toy
paced
##oga
##pse
chan
##tiv
normal
blu
poked
ways
##rring
spot
compared
joint
toe
tender
terribly
##gul
figured
excellent
outdoors
thus
tres
##rgy
degrees
overs
est
screaming
##ril
women
thomas
hilly
leaving
##hun
##ule
wwe
##set
xp
couldn
collapse
##phine
ras
##sta
horn
tear
geo
beast
howe
gross
sis
shin
glasses
##sar
mark
dive
nonstop
runner
##ame
##ily
ting
unfortunately
##rred
##lan
motorcycle
pumping
##lee
##00
##sea
honestly
##fra
##ibly
col
##ede
beside
alright
rent
easier
shall
##dp
##ssed
##rao
##oop
reality
jj
##gc
##yen
virginia
##oes
##pen
afro
losing
believe
cum
wild
engaged
600
parc
##uche
##pts
slight
bowling
sweet
##ppa
particularly
°
##rts
tool
asa
##wig
personally
##ade
homework
onto
ashamed
cause
swings
fingers
db
pol
split
lok
ion
cried
aldo
##yin
deeply
##ower
iss
##shi
##nst
9th
##roy
consisted
seat
eating
sleeping
tab
bing
tau
sumo
senior
citizen
fist
306
##ils
##dim
landing
achieved
##uto
gate
fact
##ury
##wad
ep
wang
gig
##eli
points
hack
laid
jan
grace
charlie
cooper
wholly
##uch
##ffe
##7th
vigorous
repetition
20th
naked
lightly
theo
##lde
outdoor
vice
pushing
deep
grow
inch
bone
thunder
##gil
dei
shop
gs
##tti
##col
quivering
##bla
##ouse
##arte
ling
##vc
##ably
sgt
##ards
fore
##mut
waited
##yk
##rri
ego
rapidly
flying
rides
##cous
length
ely
breaks
##own
hm
heard
##cki
stan
##ign
trails
thoroughly
type
##ect
watched
habit
##cin
lc
len
west
##ode
knots
##ining
nun
##za
bile
bikes
fulfilled
##man
gm
##cp
din
6000
##nee
metres
##sal
##lok
relay
hart
typically
van
carefully
damned
##ths
nov
##gies
##walk
lame
##ila
roc
180
##ital
##ized
##bour
##hood
##ons
build
##lz
gotta
gained
tun
##body
##ack
1a
##aid
lp
##ink
green
forgot
needs
successfully
care
live
singles
##onal
iv
paid
mc
med
##ture
tray
##gree
spouse
##nse
terri
chu
##outh
##ops
##ice
dome
##cent
web
sane
finger
ninety
dc
##ening
kill
##shu
##jic
struggled
##uk
##tro
inter
owes
avery
sid
##ial
important
college
tore
##itt
##nto
downs
via
ark
##hall
bare
ram
##hire
tense
abd
constant
begin
change
##ens
gal
##8th
##ened
surprisingly
lou
##isi
downstairs
young
##my
neat
walled
##cel
##ings
mono
##oni
grade
stay
##tp
hips
rained
walker
##lass
##bin
##kill
##mme
##obe
flat
##rad
##oki
sub
qb
fae
##sei
##won
true
double
2000
##iq
circle
downtown
vigorously
##hole
pete
anna
##sic
3rd
##mel
bob
##tty
mall
flew
##run
currently
occasionally
nobody
##llen
##fp
knowing
gasping
wearing
##avi
##kim
##yp
pleas
open
nerve
para
##lling
sound
mara
paralyzed
bags
##lat
starter
tc
##ured
##dar
entering
simply
##lth
##ote
subdivision
##uez
revived
surface
honest
strangely
ahead
seems
dogs
inspired
central
##ttle
##pg
##oum
julia
##lty
family
member
##ace
hank
tiny
##kat
hole
alert
bent
##dad
##ili
pia
##lish
##joy
tx
##sos
##kled
##fting
cole
diet
lone
hung
herd
ward
boss
sarah
##train
tnt
random
##par
cast
28
##lli
movie
mac
cat
oro
##aling
certain
za
##oca
mum
quo
finn
face
##44
6th
##cz
indo
repeated
previous
##gus
##ered
wii
pulls
rested
##ries
joey
bells
wes
##nal
##media
##bel
focusing
sole
##nge
zoo
pressure
130
##ley
##eni
freaking
bending
huge
together
##ulf
variations
##tted
cable
sage
holiday
##kal
deprived
##uga
drunk
##gel
rob
study
##eau
load
thrust
general
discomfort
hurdles
mag
##nted
serious
wear
heavier
##vie
cd
cars
yours
##tead
remembered
alex
##sur
toned
cooling
##ces
var
none
party
gotten
impressed
limp
nan
120
hitting
##lai
##ito
##cen
pressing
##ish
fifth
buddy
##let
##sz
feeding
ace
steel
sins
##nish
eta
military
dj
bog
mare
##cos
##rup
##din
reading
amp
##gga
##light
fired
heated
ahl
##cter
downward
##rien
bach
calming
woman
works
##rno
rei
bucket
ankle
cho
##oro
winter
##lga
trouble
##aer
fail
##aya
##eu
sum
poses
wig
nothin
##sas
##eto
abdominal
##eld
sts
tens
##sure
##was
ymca
recording
coordination
butterfly
。
mao
setting
suit
##rned
beta
guilty
##bb
##gging
estate
purpose
gong
whom
##rle
augmented
dent
shortly
##pled
##ece
yell
loss
witnessing
##tou
##ites
lex
struggle
asked
farm
cardiovascular
asleep
whatever
fra
twisted
thank
touched
mother
surfing
stadium
monday
##bes
naval
swiss
mace
yd
competed
nay
waiting
obstacle
partners
##alla
either
band
##mind
##rden
business
##quet
##ves
hare
gardening
##ople
solo
fulfilling
##amina
pitched
##ura
curves
pop
##ali
apparently
incredible
api
##pee
ballet
boots
spencer
##rmed
pic
exactly
forest
says
##ort
##ence
vest
peak
cover
##ros
peaceful
scenery
##ein
##urt
cone
##wind
##dee
nad
sic
##tive
##ske
##bai
shooting
basque
expect
lacking
bill
##ours
distances
consider
##mber
badly
##core
bloody
arc
##mous
fish
##mmon
private
##uen
taste
oak
lal
south
##tial
sand
endless
##yd
##wide
luc
##ular
lazy
extent
mls
′
kam
##pi
jumps
sports
##pon
karate
lights
##abe
##cing
kitchen
##nti
##dak
xu
mma
sexy
standard
coup
700
castle
##nan
cracked
satisfaction
16
=
chi
touch
nwa
similar
##hra
##rro
somewhere
##ergy
continue
##work
pausing
awkward
tuesday
##aea
box
martial
wings
excitement
cheerleading
puff
##aar
desperately
rebound
numerous
climbing
kay
##fell
##imeters
brave
trained
relief
taekwondo
fide
english
books
positively
##zier
deal
##dav
##nta
##gina
tracks
rags
nh
220
##athlon
lanes
aimed
oath
##uze
reward
##tal
cola
mimi
drain
frustration
shy
temperature
higher
fold
emotion
levels
entertained
aka
conquered
excel
##rave
cash
smack
ars
plant
##mins
circulation
chances
injured
##dor
ages
races
##qual
##dou
mic
headache
raining
scout
oddly
dull
expert
nfc
##eca
classic
rice
##tat
gail
foo
cost
##hak
humidity
soup
yeast
##dong
severe
wipe
##door
handle
gun
continually
blank
hull
bottom
lax
ultra
spartan
underwent
##rath
##rain
##say
disappointed
itself
tex
¾
rests
##jar
fields
##hai
##zz
dash
wrist
##aux
havoc
vine
##oric
torre
pines
##law
options
rim
boat
sprinted
content
sharp
pub
moment
57
parents
##gun
yue
fund
hai
tape
shoes
media
##hel
hara
dil
dune
tons
##ische
weather
fridays
completion
##ude
emma
##ille
terrifying
dragging
##aw
goodbye
॥
mole
showing
realize
##block
shining
nord
##him
lack
firing
adjoining
usl
luke
sync
smooth
color
##fire
##hdi
complaint
a1
anytime
##aur
patch
depleted
adventure
nintendo
switch
complaining
##chev
24th
billy
attempts
##used
##xia
plea
weary
weakness
collect
mud
suck
theme
##las
tack
unit
attempt
##mma
metric
rights
sunk
awe
overwhelmed
monthly
nair
claimed
schedule
cow
injuries
killer
##ane
##jit
geelong
dali
log
##hett
##mist
hairs
##uis
fis
fridge
kb
mayo
instant
##lia
cf
immensely
##uer
##lge
##nio
devin
themselves
gram
particular
issue
##pot
taxi
height
⅓
##aine
##cho
##owing
operation
##rter
tug
##jure
une
##don
changed
thoughts
loco
swing
signs
##dini
extinct
##rky
shore
##bered
medicine
effects
mix
##var
pun
##unes
atm
socks
##ier
litre
serve
loomed
preacher
##ben
skirt
stuff
eighty
licking
strain
md
brow
##iri
draw
##los
stroke
specifically
##and
safer
calculations
ounce
##lux
##kling
ship
internally
berlin
##iring
ness
nostrils
weakened
##nated
º
##cona
gray
bridge
rose
model
pulse
##had
goods
sleepy
##vera
bin
shoreline
nano
flags
##vah
precious
rated
files
quad
##ddling
mrs
##word
painfully
peg
bean
reduced
obstacles
safety
disabled
##ports
injury
##ppet
liver
##ulu
covering
ape
##ota
ads
university
##hore
optimistic
covered
dinner
##zal
pau
##moto
##elo
##vic
##ible
community
pet
##ony
##ains
rolling
medium
##pia
##eries
##oya
lille
nos
rq
jet
plane
##rion
taylor
saturday
##rling
tent
mats
spare
affecting
flesh
straightened
hd
##lson
brought
pets
fare
becoming
planned
installed
##uin
##ited
##ook
putin
##cious
fierce
##ety
##cycle
##icle
jade
##iss
paint
deserted
##nor
pants
anya
jean
fake
bruised
10th
blew
league
unusually
staff
##zic
##pro
paz
cheeks
satisfying
torso
##ically
##ndo
##ora
whose
canal
##free
umm
##lion
##kshi
##oto
##ita
maximal
order
seventeen
professionally
artist
##47
##nnis
goth
doubles
thrilled
sudden
##cite
lives
coached
biological
trans
##ark
foster
tapes
lawyer
fda
doug
scott
struggles
foreword
burst
ming
tam
shay
##nic
stir
##xin
ashes
causing
torn
##iled
safe
keeps
blind
##gos
##ands
wish
bull
mb
deemed
auf
aix
cracking
jaw
uncredited
season
##tie
swat
buttons
pure
##atin
events
knuckles
basement
##hur
creek
pumps
begs
behind
##ui
3d
adi
luckily
eventual
timing
shoot
##sher
##osh
sai
##row
stage
wakes
michael
sixteen
##nets
youngest
missing
##erie
##isa
##rra
##rum
##rar
tally
##oft
coil
jody
combinations
magic
gently
farther
harry
falcon
wb
##ado
friendly
keel
reduce
initial
##bad
flock
lab
afl
##rz
eater
driven
##arat
wished
##rial
tko
32
lively
coin
pasta
perfect
homme
hospital
trek
stimulated
silly
operate
respective
minus
scared
##alia
hunter
lowered
##ples
mv
##ined
ada
##ures
happier
##yes
backwards
gora
flight
##hol
##vers
relieve
jai
##wice
##xide
##fast
##main
reportedly
##iel
kings
##dha
##slin
toll
severely
des
rake
guys
somethin
##uve
achilles
anxious
bother
yourself
company
worried
traffic
##vn
altitude
##deh
##loe
key
loaded
backpack
brains
yellowstone
husband
rio
##rks
forge
casual
touching
listening
bao
##iate
##rell
##usly
mobile
##shin
recalled
##rac
##cht
##jon
bis
gravel
lasting
eternity
turn
pleasant
##lley
groceries
abandon
tears
thursday
shed
##uled
##rest
19
thru
phase
walls
bath
##rud
journey
moor
windy
##kai
jesus
advent
##eur
##dial
14th
leslie
sans
##wire
##ori
##ars
secondly
forming
considerably
##ema
costa
quietly
##gau
wound
##gia
offset
##tine
dia
doc
reasons
hello
##leg
violently
beau
notice
wine
door
sob
thor
teams
heavily
##fied
##arm
lang
pads
apartment
dawn
##town
preserve
distracted
cid
##tus
##cta
##nall
tours
perimeter
tackle
##grad
##rder
##eim
scheduled
upbeat
##ested
##64
##lous
rigorous
traveling
locked
##tar
##zee
rip
longest
##dge
slept
tattoo
##idal
hash
##kti
##cky
ding
builds
occasional
predicting
thankfully
inhibitor
switched
##jet
momentarily
gore
ninth
greet
tops
##amo
##fall
indoors
##erin
flashing
flashlight
airport
##43
##bre
cas
##pit
##lio
macy
##zhi
locations
elk
spa
promised
##iva
outstanding
##tri
##nger
unstable
ranch
##lus
route
breaking
elliptic
verve
wash
##dell
tightly
21
##kit
##rica
copa
terminal
besides
##ods
##vara
]
favourite
wrestled
angle
carried
eleventh
kc
##iche
versus
wight
llc
##active
frame
wits
deter
##mina
isolated
##qing
riff
athlete
##sily
##nat
bird
##uth
kv
rite
keys
##dev
upstairs
focus
loft
##sari
moves
##eke
threw
snatch
##ngo
controls
loads
spitting
cage
##lun
monitored
demanding
throbbing
##ram
blocking
##away
kim
proper
controlled
wandered
##wei
##hay
additional
##eye
hey
interested
##hong
rush
##berg
##ffie
promise
gathered
mighty
fear
self
cloud
hence
achieving
dick
chow
##rys
liu
##ously
font
massive
kinds
destroyed
prick
awoke
chapter
mist
##vey
lens
##lou
##line
##aging
rank
ink
accidentally
##nche
symphonies
dim
##ogy
online
nur
pit
russian
twists
exam
##forth
adult
270
seventy
suppose
sons
##nus
mines
boats
##chee
##zo
bible
rana
vast
pv
suicide
hardest
variety
external
knock
cao
highest
##tile
##metric
grape
gb
vital
##ity
descent
insanity
devoid
##icide
worst
dry
bald
correct
repeatedly
greatly
filed
##eras
185
softly
zen
##cit
##fect
##ffle
activated
mouth
##dern
begins
ska
lateral
flushed
heaviest
135
junior
##pressed
lips
##aint
approx
accomplishment
lds
cpu
favourites
sire
##kis
zur
favor
shows
##lit
##ans
prepare
gone
built
##truct
jobs
volume
nutrition
reds
herr
glee
consistent
##hue
victor
matt
filled
##tta
tome
ears
heaving
eye
sting
205
rushing
sign
##ress
##hli
angles
spirit
grey
##ocks
lux
##tling
basic
##lva
bum
##rift
silent
##astic
##ener
##elin
mediation
##tas
person
otter
smelled
dane
##pper
singing
##une
observing
cannot
##dez
becomes
strange
tq
stick
##raphy
tended
##hip
secure
confused
##aga
workshop
##nne
psi
batter
##ced
miracle
mbe
warmth
seth
amazingly
facing
katherine
recently
chalk
##eng
##ada
varies
##yana
##mas
##kar
adjusting
obviously
fabulous
spite
difficulty
sour
communal
robot
sunday
##ept
##mir
teen
undertaking
allowed
repeating
encouraged
##ses
based
##ana
loud
engine
fey
taken
bail
##lism
brother
temperatures
##app
##ney
##mun
##ders
audio
decreased
organize
ying
jedi
fins
hire
##bc
urgently
bedroom
dancer
##tet
##hiti
##zai
##oshi
bounced
##otte
hunt
basically
meaning
athletic
##kur
##lace
##esa
ava
##rage
ripped
##ago
improving
dax
##kind
##som
zev
overwhelming
eps
exclusive
##lets
screen
##org
dances
sort
##hei
mp3
sri
robbed
##pet
olds
voltage
##torm
•
storm
dire
##ape
160
starters
penalty
##iah
##iens
aus
professional
disgust
appear
david
##lah
cautiously
##lock
##izes
meat
##ressed
arte
##with
closest
flood
##ffin
intensely
delighted
##ysis
##nna
##zen
parked
boosted
lastly
##ang
view
chat
facebook
##lent
##lta
##nen
consciously
##tier
##uel
aaa
growing
##uso
steadily
sidewalks
cot
stumble
##wal
bran
stunned
wrong
##ctor
turning
heck
##zily
silence
vary
tune
##iful
##peed
##oles
state
ashley
##tern
##lid
vis
mug
streets
jong
skirts
sequence
##tched
sue
alternately
opposite
groove
##nate
##rvis
##zzi
makeup
##bate
##ision
floating
beyond
sits
##rled
yep
##tto
##chers
softball
##poo
atlantic
quicker
##adt
drum
tame
wheelchair
existed
##balance
hydro
##nas
##lum
##ima
cannon
##cher
##20
pushes
dramatically
slowed
hopped
frog
useful
beam
firm
maintain
named
cheer
competition
saber
seasons
raked
leaves
sir
baby
archery
port
robin
fencing
##lch
distance
stars
sites
cleaned
ari
iq
handball
armory
spring
caste
required
par
##sha
shower
fame
pistol
##bau
grab
aid
##uid
‚
functional
banda
moderate
netball
learning
snow
##sho
stab
matter
sui
shoe
farmer
gown
dion
somme
meeting
eva
jazz
paul
employee
odd
##oir
##uce
unless
nik
folk
vance
##over
marie
bart
blades
writ
ebert
##nished
##itia
##atic
##eres
##kong
stunt
##asse
##eded
truth
originally
overnight
bbc
yeah
highs
altogether
##lett
convinced
therapy
anyone
leader
##rting
xv
##nac
dusty
scar
##nts
egg
landed
exciting
goes
afford
##via
relatively
relic
trembled
remains
##pel
##br
##ience
dom
##vid
rag
pinnacle
joining
pie
##ulo
follow
connected
58
hanging
canoe
radio
secret
waterfall
link
spiders
wishing
wrestlemania
##roud
robber
##usa
gabby
filling
##chel
rachel
##dent
##cted
favorite
cite
fond
gradually
til
dare
ridge
empty
##lag
quiet
chess
offered
christmas
##ien
grows
##lay
passes
##ray
compete
wasted
##dina
usd
rubbed
date
gem
terrified
money
curt
##hoot
##lier
##kee
champ
syn
backyard
opened
##etic
##bil
gymnasium
##oli
##zie
hive
hitch
eki
competitive
##rson
generally
tracked
traditional
swollen
##mite
locate
fastest
recorded
chris
##bet
##sser
##phs
burt
therefore
separate
##rga
massage
##static
farms
##eta
##oit
terror
##vis
fred
mata
##hon
##rol
depart
##mbe
zhu
possibly
daniel
freshly
kun
##imum
cove
##rip
pier
swami
valle
timed
nick
nowhere
release
lead
mar
swan
24
##oor
slate
berg
centre
despite
##ope
withdrew
voluntarily
upstream
tata
bigger
##iec
wards
##rke
##sant
poole
##41
##cca
disco
hears
##sen
##tyle
bursting
##tao
waiter
##dam
##iji
##nco
kilometre
brad
male
maintaining
##bra
ripe
motion
crossing
chain
##vos
##ahl
ira
dice
belief
hind
lesser
motions
##icia
trips
frantic
rc
##tically
##olin
panting
gwen
metre
wrote
##eia
song
counted
logs
##inge
##nged
rama
dye
##urst
##eft
shouldn
situation
##hide
##udy
punching
techniques
##ini
##eri
##tsu
##33
##ath
prepared
show
##bar
weren
noticed
##sell
practicing
tap
bobby
##adi
##ction
##mmer
worthy
special
belong
vaguely
##qa
##una
studio
laughing
belly
choreography
meal
specific
story
jess
shadows
##stan
shivering
##oge
moody
considered
plan
##just
ian
##rso
static
tremble
cycles
fled
##owed
told
yan
rolled
defaulted
lunged
brief
weaker
kindly
reverse
jimmy
moi
stayed
frozen
##pan
thirst
##hor
heel
##urn
pad
tao
wooden
aunt
railing
searching
pig
included
##ido
charlotte
hall
attack
##iu
sponsored
##hold
amateur
cliff
##lik
mir
##ater
conscious
achievement
sean
lions
rapid
##odes
##cio
##fication
cheng
clearly
gain
conquer
pairs
##cule
##wine
##gall
alongside
among
dar
plaid
##rus
##bat
entrance
tournament
val
##zzy
participating
##abi
drugs
##ieg
##yna
send
##rick
lime
masters
##nton
##rence
teammate
size
##mit
##llet
##att
ric
wanting
coffee
pounded
##dhi
remarkable
void
##cars
lace
uci
shut
silk
score
15th
##sso
pittsburgh
dail
weighing
treat
proudly
sing
dig
##lev
zoe
credit
paperwork
##eon
cheap
##hine
liked
3000
talked
##ras
##ym
##tor
duncan
mas
##ilis
400
heartbeat
##ega
added
imitation
adding
plenty
helps
crown
computer
##gur
volunteered
acid
boogie
##ova
share
triple
smell
##iae
levi
surplus
##wes
branches
extended
vacation
learned
anal
boxer
mobility
trunks
combined
takes
arts
liable
dies
##logy
##tma
freaked
graf
mg
weaken
praying
thanks
guy
john
##34
duff
12th
vent
intended
##ash
##lma
flexed
pill
buck
bert
sham
flip
##llis
##bid
ends
##iba
##more
##oue
strokes
##iating
merely
scored
##fus
dvd
purse
cia
##kic
cigarette
officially
mates
bass
curses
ik
##pac
videos
mills
suite
removal
damp
conditioned
sped
##rva
library
##oder
recovered
drank
##vious
aug
moved
blake
stepped
impact
huff
pan
##cap
perfectly
ease
44
gan
dropped
bun
grabbing
lily
dolls
##gp
##far
##table
regret
decision
29
jain
aces
##85
tasked
spun
##pid
brick
save
##ello
shells
melt
rocks
cramped
##bah
##tens
##cuit
check
##point
cindy
##uss
dollar
wta
##aking
rein
##less
##oton
click
##oned
aqua
##ols
truss
##lez
##ord
grain
india
crust
mae
##ines
uss
hc
##cles
##oom
nate
bb
meant
##rim
lump
##oot
millions
##von
##iable
feelings
##wan
140
bubble
ropes
apart
##skin
dot
glue
##ags
cowboy
##rae
eggs
innings
##ntal
shaped
##por
holy
human
##mac
ants
##gam
wondered
infant
simultaneously
circulating
post
##tum
improved
billion
overcome
throughout
brutal
further
segments
portions
considerable
romanian
##form
dedicated
leisure
pena
##tos
canyon
biker
##idi
wonders
##leton
sandwich
defeated
inadequate
helpful
perform
##rangle
anticipated
pokemon
shiny
goals
doctor
large
trash
increasing
##ows
forever
spirits
maximum
gains
aggressive
##odle
planet
190
tenth
exhaustion
motivation
invincible
benches
position
##pal
##bha
lightweight
nam
##ask
regime
chair
##ious
centered
lifeless
sensation
carrying
enjoying
tighten
cobra
lacrosse
derby
washed
##bee
##log
intending
logged
alternating
bounce
slowing
kicks
routing
bands
##hwa
interest
daughter
stepping
elevator
period
skiing
rewarded
atmosphere
rower
batman
squad
elle
nylon
boulder
squash
paddle
##water
facility
skating
ankles
fours
cleaning
bathroom
