@@UNKNOWN@@
i
.
[CLS]
[SEP]
and
##s
the
did
my
felt
a
##t
##d
for
##e
##y
it
was
on
in
of
"
,
feel
so
'
!
##l
to
##r
##g
##h
but
w
just
f
l
##ed
##k
t
##f
##n
s
$
##er
an
##j
minutes
out
##w
th
tired
##o
fe
m
##x
at
##4
30
is
ve
en
miles
am
##m
e
##ly
#
##q
after
we
o
ups
ran
st
hour
workout
y
are
ex
##3
up
##z
(
@
##es
d
me
##v
do
he
like
%
##ing
good
very
3
ju
re
be
one
##8
*
now
##c
##a
-
^
sore
walked
##9
al
r
&
20
legs
h
really
2
[
##2
5
##b
as
10
two
today
ye
##5
b
exhausted
##gi
##zed
##6
had
g
j
all
ha
<
##u
’
push
##st
##7
ho
that
##p
##i
n
great
)
with
go
squat
##ng
ti
1
wo
this
min
fr
##ve
##ll
tread
##re
p
q
##he
di
went
leg
##mill
were
more
you
##ke
not
mile
got
played
##le
yoga
##ted
weights
bike
x
:
li
hi
/
>
15
no
##ld
##in
too
50
##0
4
##ch
##lt
class
or
;
sets
arms
##ts
##ce
ne
by
gr
some
first
se
she
three
then
?
mu
mo
z
gym
##te
##at
fee
##ea
get
real
u
45
mi
lifted
wa
still
##ut
fi
cl
fell
##th
sit
##ht
body
af
100
tr
us
strong
hours
##me
##nd
bu
press
have
ab
aft
ten
##lly
run
pl
ar
afterwards
##vi
also
##ee
lo
minute
wi
##gh
swam
set
around
te
his
exercise
co
ja
doing
back
elliptical
breath
her
bench
work
five
jo
##on
they
day
about
##en
ll
sl
##de
ou
jack
##ry
##ou
ba
##ft
ed
can
even
sw
##rs
##rd
ref
un
tt
##et
because
es
morning
walk
##fe
how
##ps
##al
rode
##ge
##ls
v
##ty
ea
##gs
c
##xt
##nt
when
im
##ght
hike
br
##ot
##ur
pr
##el
pre
yo
##ks
bo
could
laps
again
##wr
only
##ups
half
##resh
jogged
weight
off
##hs
##ss
little
##gt
tu
ce
##ated
6
over
##ter
fu
##hg
abs
##ust
arm
##ds
pu
from
po
feeling
bad
end
##ua
##ct
time
lit
if
##gg
our
second
25
jumping
play
relaxed
##ig
ah
##je
##jn
##se
##her
0
##wl
shape
hurt
##gor
tha
took
na
ao
rep
goo
##ck
running
la
weak
ng
ad
better
long
almost
##wt
el
##dd
dd
ee
##we
during
muscles
##is
##ws
##rt
ni
pull
40
##sl
##fi
##ti
ev
dr
mor
##fr
com
actually
##om
dumb
##io
##sr
dad
##wd
de
##ay
basketball
completed
##or
sh
ge
machine
thirty
##tes
##wn
hu
du
er
ii
ts
##im
finished
##bell
ro
##ne
going
eve
hot
##fo
je
##li
ag
hard
has
ty
sp
tod
accomplished
k
##rp
su
ga
chest
bi
##od
lifting
happy
9
every
used
##red
##ms
zu
le
##led
made
new
##hi
may
while
spent
ac
##day
cr
##un
##ally
##ef
there
##kt
tennis
wind
act
##fs
need
four
who
##pe
ae
bar
ot
##rr
tho
##ir
si
hr
fa
##be
##dy
tn
##js
dead
##ees
ok
lot
##lf
sq
ki
##rh
fin
##sh
game
down
8
##us
##ver
##ol
card
wei
kn
ma
lt
##ho
soo
##ro
crunch
##ring
much
sho
fun
##ar
gi
ff
##pl
##ey
sa
##sy
mill
aa
ap
ke
situ
et
##ic
few
ol
once
ta
##ih
fl
##lr
big
##mo
sr
twenty
##hed
yet
##ew
never
saw
als
finally
##ul
au
##ked
training
plank
than
shaky
ai
way
oh
##ha
##hr
ste
ci
##ns
##kr
pro
##ai
ever
##oy
full
ing
getting
ca
exercises
through
##lu
##ger
free
six
##mi
ri
tire
##out
both
##ib
##rl
##hat
ball
ear
wat
jogging
its
##ln
any
hit
ji
##tt
lift
fir
##lo
sc
before
walking
pain
sweaty
cu
##lk
sec
##med
rr
##mg
##mba
##tu
##il
##ok
##ca
##so
##dt
myself
times
##xi
##ven
would
##ex
##it
high
bit
##fer
da
ra
pe
son
each
ec
them
##rn
##ged
##ie
energetic
heart
eel
em
##ii
##nl
bet
##tly
burning
sm
always
which
whole
##ow
##ill
vo
inc
##ad
pa
sk
##hen
##sf
##ging
feet
pretty
##ij
put
ch
him
already
##ec
##hl
pi
aero
200
started
wr
60
##lift
##gy
##sd
##ble
tb
##his
##to
##nut
swim
outside
##eg
##ju
worked
completely
##hing
##fa
##ni
12
your
pool
video
last
until
##les
per
home
##oh
don
##rf
##ys
hat
suddenly
ss
##rg
fast
done
right
dog
##rk
che
wu
sf
tri
hand
eh
take
##sel
##ent
dance
own
totally
most
fire
##dr
##dl
##oe
##pp
##wi
con
jump
stomach
va
other
warm
make
wit
##of
##ky
##em
see
og
##ci
##da
wen
use
another
##iy
##ue
##for
yu
##as
##bic
##fl
heavy
##py
##ra
##su
left
having
doin
pounds
tow
##ell
os
ob
##ball
##ga
ready
ct
pumped
fatigue
##sc
##cu
##hh
what
##wc
##ff
maybe
##sa
where
##ting
##ba
row
kick
7
energy
##tl
##ta
##hes
aw
##tr
##one
lu
il
vi
will
swimming
mk
sha
probably
ins
##an
##ug
##mp
##la
##ded
well
ate
##ud
thou
##ev
stil
##ful
sometimes
tel
ir
##wa
##vs
00
##ny
old
rs
##rea
excited
ya
##ep
##pt
track
ut
##pr
ua
##cs
##na
##id
##ri
though
sat
##bt
burn
##hin
red
barely
##gai
fur
ck
##di
##fk
##oj
since
##use
nt
km
##hil
##igh
god
these
dan
##rer
hs
gu
keep
ein
mini
air
far
sur
amazing
##uld
##llo
##ma
war
##ome
##ugh
dt
##cl
mn
vr
bed
ko
ny
##cer
soon
mw
##ther
curls
worn
rope
stair
mil
yesterday
##mt
straight
tried
sweat
super
light
tre
bag
##os
##xy
por
ass
eat
##ute
##sg
##ae
##ime
##ckle
spin
##wen
##oo
bas
dow
ban
tough
beat
park
proud
##hd
breathe
slow
##am
bot
ia
##haus
dl
those
jun
##ong
##wo
##our
##ely
feels
fresh
##iv
look
int
mai
afterward
sure
start
।
man
##ax
##ao
##ved
##if
sar
##bo
##ko
mostly
##hn
##pd
slightly
nu
##uf
presses
stretching
extremely
gel
knees
##rly
ml
##nk
neighborhood
om
300
##fu
here
xl
inside
##tel
##af
##ers
ist
##ak
their
lung
##ned
ride
upper
stationary
bicycle
##ner
trail
stairs
without
top
sud
qu
##ze
being
dh
gee
##ets
acc
week
foot
days
bee
##cise
##ple
##ped
##yi
quite
##ning
seconds
exhaust
near
fifteen
##aus
sy
##ung
##rst
##tf
##og
tim
##ji
stronger
##ac
##ery
##go
res
##hu
##ied
relax
climb
working
##hila
##uh
hurting
nice
ak
less
powerful
ana
mine
##lb
##get
nl
##uts
must
ser
##um
##all
doi
##ree
yes
vu
nearly
extra
##ob
##way
##xed
##aj
##box
numb
fine
terrible
##per
afternoon
io
same
##ru
##nu
##tua
water
##lm
##hit
##oth
practice
hands
stiff
av
dam
rn
low
sg
##ber
hk
needed
##ag
##king
##kou
rowing
sweating
fit
##rated
##oa
kin
away
##ub
lbs
sd
hen
ft
##qi
##ess
##rin
##how
##av
##fy
op
butt
##hy
fei
##gr
##ges
usually
##ith
##au
pound
##wy
strength
##rm
somehow
##rc
##yed
stretched
bea
people
mom
##co
cycle
jin
thought
pressed
block
##has
drained
head
early
shi
fall
##mos
ann
next
##ah
##aa
##ways
der
##bly
ow
del
muscle
men
fk
try
fig
thighs
##ase
weigh
tight
bt
jj
ib
##nce
nw
rig
tom
##com
let
nr
##mb
##tre
##cks
##no
##cy
##ka
doo
##nh
fitness
killing
met
evening
able
##pi
completing
##ead
everything
mp
##ja
50th
##cr
##va
##ki
lok
##oi
##ise
##und
hear
want
performed
ka
nor
##cal
##jo
##yt
ike
##tin
say
##vr
##fed
##ab
##3d
##ik
##ure
tomorrow
##ip
tak
jumped
soy
breathing
bs
##urs
##eh
##oun
##ei
max
plus
##eo
ph
##vy
gust
##km
##ion
looked
shaking
##iny
##bl
won
##hey
##ound
ms
col
using
qui
cal
although
brisk
hurts
steps
##ren
sin
danced
ago
ui
seemed
##1
know
##uw
##oll
tee
##yer
##uc
job
##ues
##lp
##ying
mig
##ore
gp
##si
lil
mm
dee
35
##est
##nc
became
ben
buy
##ving
##ton
ned
jelly
hungry
hundred
##con
several
##war
##lates
skipping
later
##vo
complete
##nn
owe
sim
belt
hal
##gc
fed
cha
rec
wil
##wer
toni
many
##bs
ie
into
##pw
ore
chester
##gn
##thi
##hp
foo
##md
##ez
##ass
##ull
lap
##ml
##wu
speed
pace
eu
##res
might
sun
ru
something
store
thy
##rai
nothing
##yo
tonight
thin
lb
pass
pp
##are
yi
riding
pt
stop
ku
add
##ux
ter
##xa
pump
##pm
ry
##kk
lea
##ply
han
##op
ip
wee
rt
##cam
##pu
##vd
gut
##ling
##ten
double
enjoy
incredibly
warmed
field
finish
awful
##ies
hardly
##ia
began
weighs
18
form
##dly
rd
##ole
##hre
##hem
watching
90
##del
##nr
ham
##sed
qi
core
##eal
bk
knew
##sw
bus
tor
##po
damn
##ku
##ming
##hc
td
##zy
relaxing
##rre
golf
app
mad
shoulders
sick
spend
often
school
##sted
best
absolutely
##rou
##gis
should
racing
star
##fen
lake
##hill
eventually
##cm
les
twice
ill
bud
immediately
cold
session
##up
##ily
late
##gen
##bu
hut
##ses
tea
kg
##lke
ama
##rong
##jm
why
nec
mit
everyone
nat
##eb
law
awake
##sp
##men
team
##tee
##gl
aching
milk
##gb
##by
shoulder
step
##sk
dip
volleyball
floor
die
football
difficult
000
##hus
pal
tier
und
##uy
rough
##mm
##ye
mt
##ere
bal
##mes
rather
ton
##bal
awesome
##oda
quickly
things
weeks
jim
nod
##ine
ski
##ain
box
tie
mon
##ial
ale
life
ara
rf
jam
##fin
##ual
fat
##ward
gin
bf
makes
22
##ear
across
ep
train
##mute
hq
year
forth
##tic
playing
wal
mas
150
barre
soccer
youtube
easy
shot
kept
along
satisfied
bored
horrible
place
motivated
give
beg
##oc
##fted
##rb
rat
##jer
##inn
sea
fill
##ap
##ment
##ste
daily
ld
fifty
##qu
##ite
##min
bare
sas
##rat
##act
ant
##nin
##ail
##ix
said
##ually
stu
calm
led
xu
intense
gold
##nti
##hic
thee
##hine
wonderful
13
##overs
##win
pick
healthy
##lar
flights
short
fucking
ache
twelve
##ous
quit
toe
##amp
calf
consecutive
5th
que
ic
fx
##zd
##uz
##ate
##tle
bell
kettle
##hir
##nig
eight
##ick
okay
##ady
think
normally
stand
॥
##cd
##ek
##lled
##ose
worm
##int
##wed
hai
reg
##tty
##dden
tv
##yn
##zi
wanted
##cke
hip
##dm
limb
cycling
rid
##ath
break
comfortable
car
##nch
##art
age
pd
night
##hee
eli
##tti
bei
##ping
##rry
##der
dancing
calves
net
pushed
dizzy
beach
endurance
house
##han
wet
##ile
hop
rod
fai
sum
ax
##chin
come
##gu
thousand
##sit
##ating
routine
##ight
nee
soc
##ond
##ley
cp
ang
##ats
ind
##ught
entire
##and
##den
boo
um
##cing
##mal
actual
curl
overall
ps
##uti
foe
##ide
trying
power
##rds
confident
##ity
##pf
##aly
aj
##gm
refreshing
ns
practiced
##ske
ice
different
usual
hell
hills
knee
been
##lle
determined
slowly
lay
challenged
forty
years
loved
alone
starting
pri
doe
road
fails
##hei
bout
mat
non
##ret
ono
##ntly
noodles
##wk
sen
sam
##ost
##sm
##gue
##ush
##ej
##zh
##oud
##do
hz
##kin
##ave
##dh
##iz
##cus
##thing
mx
##ike
##cre
ware
sb
everyday
practically
##ppy
remember
##nb
bye
goin
##very
quiet
##cb
cho
pia
##nes
especially
alive
##mat
alt
circuit
part
kinda
camp
wb
lifts
heal
boxing
fan
stretches
climbed
seven
##zu
##most
meters
hill
ain
shit
heels
het
area
##xin
##eter
##tron
ur
ud
des
##ete
gt
##ttle
gets
med
hey
##bel
##ive
white
rc
##bi
##ces
##het
tad
wall
room
250
watch
enough
##gin
##dre
rate
##cle
##end
##gre
ek
##tter
##du
wan
nc
ata
##lea
##ant
md
heard
nine
##zin
read
id
##kes
sep
total
4th
event
##net
instantly
##lles
intensity
move
tour
mountain
mph
##the
tin
##ired
las
aye
friends
bn
##oga
couple
##0s
except
##nts
yoo
quick
incline
music
born
##lip
pulled
##che
however
##oms
relaxation
kind
volley
river
friend
kilometers
glad
thing
catch
##cc
tied
hope
past
qc
bro
##jou
##sto
geo
cy
tna
##ays
##cis
225
worth
##yu
ul
##pet
ali
gen
gem
det
challenging
vol
##ya
##kle
##nds
##zo
weighted
nan
##tm
##till
##ice
mar
##gee
earlier
##ining
nap
curled
iv
##lth
nic
under
##wat
become
def
##vin
usd
making
stretch
bsc
##tion
##des
rev
##yd
lower
ds
##cic
reel
##ced
grew
coming
##vor
bay
match
hack
sol
definitely
forward
##uet
rock
wore
machines
bat
course
##lc
rv
##ster
##gf
abd
##ool
hug
##dry
skipped
flexible
chin
race
##unt
world
moving
runs
blocks
miss
##rel
##tis
terrific
painful
nature
fees
wake
##lie
##sse
safe
##uo
hp
tia
##omp
base
lie
##jk
##hm
empowered
luke
lee
somewhat
##ons
small
million
##wing
##mple
##eed
nak
##ral
##rid
josh
fis
##air
##ress
dome
lunch
rows
##eve
tq
##ized
##sle
##tra
gave
lost
eng
towards
love
dat
##ect
##ough
flat
cross
sic
##era
##mme
##aday
tense
##bing
##rey
hold
rowe
##fat
lai
rest
lime
##een
##pin
skate
live
style
awe
##vel
##ast
lp
increase
anyway
ask
##sic
sv
mr
##ink
##rri
master
##cit
##jing
tap
raises
##uta
=
relieved
normal
someone
blood
##met
physically
clear
##kki
stupid
hood
lungs
##git
##cos
found
lin
hum
within
nut
ward
dea
500
record
sad
##tem
black
moor
##don
dir
##gat
##oin
kam
80
tan
##esh
apparently
log
##ches
tis
rounds
sole
round
##ron
##fly
##dee
weekly
##ire
mis
##fc
ks
help
simply
held
wai
gotten
gus
##fm
strain
month
wow
till
##lls
grow
liv
buck
gan
looking
##rda
##joy
kw
shu
onto
odd
freaking
fired
additional
##ding
goal
##ves
feed
together
kids
##ett
##uing
awoke
mach
lush
nas
imp
begin
tai
pm
including
##ach
##ard
gig
##tet
tar
enjoyed
##bed
came
3a
##ptic
##ount
##ried
##ich
est
weightlifting
11th
months
headed
elbows
instead
hog
climbing
incredible
group
wiped
crazy
75
dying
between
faster
stressed
##rating
2a
gives
##bn
los
##able
main
alf
##ched
fly
wah
gear
care
17
focused
certainly
##ove
##tp
##bc
gs
##nal
plain
missed
##ace
ave
##tte
##ake
##oked
inn
food
##rde
##rth
lim
xi
##oed
pee
tree
aba
thigh
##df
tall
##ence
hated
stopped
##jit
mean
jug
##sis
sire
25th
mike
##body
sid
##fb
mud
##qa
lip
strained
##bbly
rum
##hot
interval
hair
ina
movement
ren
sent
cult
##uge
truck
sleep
rpm
##less
oder
control
dar
table
##lay
##lee
classes
##eme
##tch
##nty
##gly
herd
holes
perfectly
##lom
peace
mind
logs
wig
wings
##lla
##ably
ally
yer
asa
sap
len
##cia
##yon
pg
nh
sounded
helped
gas
##dio
physical
toward
##ein
cool
##nni
activities
participated
bp
skip
boxed
bank
dec
picked
intervals
stopping
##side
marathon
shower
##aw
harder
rune
##hal
least
ley
##val
##words
lose
lev
##tan
rub
poor
##rta
##zing
local
##aid
tiny
special
managed
mal
bel
##ler
##let
drop
nervous
mc
##ote
##gie
##lty
lessons
##ben
wait
11
cw
din
##qua
db
##tal
side
against
mer
tran
##ini
##ui
##its
nk
##nst
##rti
rex
mae
##tec
dq
##cite
##ths
##yes
moe
maj
pulling
hee
##rts
earl
eye
wc
seat
##xing
vigorous
trial
##idi
alex
##ort
##eti
##fp
##ins
##vu
##son
sins
gm
##gic
fantastic
##vis
##xx
web
armed
##ame
turn
health
player
das
##mel
loose
kill
55
hd
taking
approximately
exact
dry
##vid
##agi
attended
ile
rested
plan
fort
##ox
##cie
path
##rted
##vre
perfect
bae
##nse
john
itv
nerve
liter
24
perhaps
##ited
##ece
passing
##ish
##sb
face
##dad
nes
pow
##sin
##rug
joy
ked
dal
##gut
mod
##outh
##lli
wanna
##lor
##zzi
##jin
cm
sal
locked
mag
##ser
others
sunday
dai
regular
##bh
arte
such
##ssed
##nge
##tain
peg
##vet
cs
ballet
basic
brush
##kh
hitting
##za
##atic
phi
sts
baseball
##gged
kay
##chi
close
hoop
roller
hiking
ze
##own
degrees
town
ring
performance
##lin
eyes
reach
random
spp
##ness
##nder
fuck
##gel
##illy
ted
##ele
##nel
##sat
maximum
sui
landed
leaving
##rmed
##ood
var
##pes
##iq
##ist
##dp
hare
##ook
##shed
##dia
16
##iu
trembling
nov
mode
pun
bey
##bol
differ
##ov
##bf
##pee
##uj
##tz
##ols
pushing
amp
fist
otherwise
burned
ala
rack
##tur
weir
liked
curly
solid
##rle
##nde
ska
##nz
stole
##sio
exactly
lid
pike
##wig
alarm
biceps
½
une
##uve
bb
hers
##mot
average
halfway
par
balance
neck
obe
##rred
literally
thai
via
tore
##ics
dj
##jal
important
##ign
art
fish
##jon
1st
bid
realized
college
##nis
tab
beyond
pay
recently
##ert
##ien
bra
stuff
winter
##eda
##eak
broke
menu
call
single
##ety
hole
##nte
dane
##dom
##rz
continue
gill
##row
minh
##rar
##cent
##hay
##zz
gate
mole
skills
walks
ribs
regularly
initially
##mu
enjoying
##cz
club
##rac
##dc
tal
therefore
##nx
##tea
##ors
kicked
##lder
vs
##wee
##hli
cis
##rse
experience
##iti
sai
##ali
##lete
seeing
damned
nobody
##oma
hung
##sz
luck
##ump
##tie
##omo
watched
eta
tires
arc
##lity
seo
##els
##ories
struggle
environment
loss
tram
##ken
basket
amount
hang
paperwork
adrenaline
mara
##nos
beginning
increased
##ph
##ens
sprint
thirsty
til
honestly
slug
longer
unfortunately
phone
couldn
adventure
shin
yard
##eld
else
mark
country
qb
usa
bog
70
##sef
##ape
learn
##ppa
reality
##iff
beer
thankfully
surprisingly
hips
##hos
mont
bun
##cki
wta
huge
1a
##gies
struggling
nad
##ibe
##bra
acted
##ffin
##wes
val
ark
dig
sing
sumo
tool
thus
##nen
following
tame
##gua
##une
##ssi
nix
large
wrists
wii
##yas
##ult
nights
holding
sudden
##br
##ind
mg
##oon
##usly
fide
lou
boring
##my
##eon
eden
##scu
effort
wholly
fair
orgasm
##mit
##oned
##jos
##rled
##ene
abu
bow
lad
##tted
##hul
triad
himself
uc
stay
spinning
##var
station
previous
resistance
july
sell
truly
##fle
remained
##umb
mac
##tai
##ible
zero
##oot
##fide
fen
north
ways
##ode
##time
##lda
grip
##uk
##gio
##ech
##gar
##von
find
##mis
berry
interested
plaid
spouse
clean
##aq
show
##ude
sound
##unds
backs
gotta
finn
court
##put
david
treat
##itt
##ige
touch
boy
##ans
##aine
charlie
slept
poses
hate
##cel
enjoyable
##bb
alert
trip
##ade
thinking
##lok
##irs
loosened
mint
mood
##dra
##pen
summer
##uous
third
##ical
studying
##sos
cf
##wg
drive
##pg
##din
##urt
belly
giant
yeah
wes
##lim
hove
rubber
deter
nos
##mind
shop
##fting
##bil
120
##plate
ely
##rge
counted
basically
##elin
passed
##rent
##oja
sis
innings
cry
##sen
rm
sense
cn
bam
win
activated
tau
##tas
flu
front
downward
flex
bala
alto
tae
##ters
flexibility
##oke
cue
##not
fra
##quet
##pol
competed
cheer
curves
##hua
##ais
pas
shivering
fought
trunks
breathless
pumping
itself
miserable
prof
active
performing
kilometres
rot
##bin
killed
meter
exposed
##iste
wish
tx
6th
ones
obviously
tested
personal
##nta
loft
overwhelmed
covered
##wad
hon
##iki
mental
15th
ankles
dos
joints
cap
soft
##mx
jake
##rks
kade
##bor
##nate
##low
lawyer
##ings
followed
##ffe
split
##ious
roll
deep
##att
pau
standard
whenever
##eth
nun
##lent
##mps
raw
pose
##pc
##bet
##ture
##vic
##nic
##top
##ont
heat
living
wild
hem
practicing
dozen
apart
##yte
##yle
##oom
##ife
various
decided
howe
mane
##ura
##say
mid
spa
saying
sex
yours
stood
bruised
##bee
sucked
oro
##rus
##ross
adam
exercising
empty
kicks
perform
##lite
##tera
cut
ryan
##ier
muscular
pin
ada
##rte
iii
##man
mass
##ean
##par
exercised
level
lonely
biking
30th
length
cab
buddy
##uth
##eu
outdoor
rare
setting
beating
##yk
bard
##len
peter
ion
rally
farther
thick
breaks
precious
##ular
dirt
fore
failure
flee
mall
rail
fail
badly
##lal
##ira
##dell
tell
matches
cup
¹
⁄
₂
paid
##tc
sri
##gni
##yin
terribly
human
beck
somebody
tide
mare
throw
daddy
##ock
gui
attempted
##ula
##adt
##eli
##wal
##pa
jon
mild
pat
city
sac
##gizing
##uit
joe
dom
##ott
mab
revived
##sti
##aks
##berg
##lase
wwe
talk
member
##tical
cole
fife
trainer
ground
##oum
sixty
moments
##tom
##pur
##ica
pleasantly
indeed
final
straining
##iva
neal
##dal
pained
math
based
eventual
carefully
##ids
load
130
focusing
thrusts
##ower
##ope
ik
dem
heavier
tone
glass
##eer
bound
##yl
rq
##hly
iss
##ance
##ppe
##ulf
##uder
##wall
burns
games
online
##ota
##har
21
##rag
rotation
standing
lone
##yen
toned
##hae
cooling
##ergy
rap
hired
pressure
sessions
##gga
uh
seats
##hai
version
upon
##qui
fits
ron
##wai
##gul
shall
social
##ici
vin
##sing
##gall
facing
nave
whatever
king
##light
everybody
##ros
stayed
##sion
##sol
lucky
##dit
pea
##jan
butterfly
gained
fame
major
fia
yards
rai
west
bear
liu
##gned
bach
nearby
called
groove
stadium
mir
amy
spencer
lacking
punching
kilometre
pier
##sir
mum
wing
awkward
drum
##ines
##master
badminton
##work
flexed
kilometer
beast
##uted
explode
indoor
street
nonstop
believe
grateful
spot
alright
800
tip
outs
quarter
please
despite
attempts
235
##ati
purpose
##ctic
##ili
##pel
wasn
##sei
dew
gina
carried
van
##kos
officially
utterly
current
##ule
swings
woman
cane
sped
particular
fiba
bon
program
##pon
##eil
##ching
mess
##olt
##rbin
aqua
##lat
sensation
spaghetti
##nish
whose
##cial
##hel
vet
robber
##8th
surf
hans
##hak
##ede
deeply
##iso
jp
##run
bin
bull
##oue
tc
##por
##rgy
##llen
##gun
becoming
prop
##np
##kat
##ople
percent
jade
##kit
##rew
##san
ami
##gur
##ises
bone
dim
bunch
##pper
true
nest
stroke
bands
##lou
grey
dirty
egg
lots
maintaining
episode
strangely
open
##rned
natural
frs
vow
cyclic
trails
pedal
monday
##pped
##hall
dail
san
flew
restless
##ndo
brave
kid
controlled
didn
secondly
flow
##rim
cree
jax
drove
##lce
##oli
##mer
girl
finishing
verve
woke
unusually
##lts
east
##nell
funny
mace
api
##rsa
anything
emotionally
##rang
lazy
green
previously
lax
##ined
eun
##ark
seriously
##ume
lang
rand
##que
##vik
plays
song
seem
board
fingers
knuckles
##ghi
loud
rae
##shu
##port
wide
giving
##tat
girls
similar
##cies
meet
##mc
seek
##ands
apr
string
##chu
jan
##aking
##wil
##stan
##isi
mao
##uss
##ras
##yse
finger
skin
falling
screaming
dion
friday
talking
##ico
stroll
circle
##lid
##bot
20th
mps
stuck
alla
lighter
##won
guess
nur
boot
turned
scored
##ror
pleased
downstairs
progress
apartment
cove
building
hospital
steppe
rear
##sal
heads
##ern
etc
worker
##zer
##ris
##tics
dark
asleep
##tica
##cous
wed
avery
learning
##mous
naked
##pro
word
##ius
horn
lame
##lev
fog
##ray
smelled
##sta
beta
##ane
check
smart
repeated
proper
excel
focus
isn
coin
hurdles
##fort
ling
pill
##uch
keeping
taste
##vious
coup
self
general
challenge
cai
##mas
carry
##nished
anymore
##ads
generally
##ars
##ize
spring
mist
noon
cramped
fins
##gus
bloc
cat
##ash
##iate
##oka
slowed
##lling
cycles
everywhere
von
capable
experienced
##uca
cell
##head
extreme
unit
##tens
consider
mel
##oit
accomplishment
decline
##lis
impressed
##ford
shoot
luckily
##mac
fight
##rot
##iec
barr
ape
throwing
beautiful
##ela
workshop
##log
james
spite
##cor
connected
sip
bars
##dhi
arts
wonder
##nded
##tor
infant
coa
exam
##ker
axe
##lz
##iol
bounced
pop
competition
lal
solo
distance
##lib
throughout
##fra
improve
bought
kat
##vio
##tou
bigger
weird
abdomen
##jet
browne
joo
augmented
absolute
change
##ege
##oki
toes
swiss
nam
dil
gardening
pan
band
##ept
##balance
wise
poll
##uin
##vir
dug
heel
feeding
woods
##rest
butte
pac
starter
competitive
particularly
##static
##oss
lesser
##tiv
afraid
tighter
tremble
reverse
moon
##oped
##mbe
assisted
gasping
##ido
cricket
##iating
jumps
extensions
cowboy
sprinted
600
expected
lack
neighbor
hiv
##erated
compared
drink
reached
##fully
sued
##hers
##mun
dans
lac
runner
productive
##dan
##life
gain
##aca
##dong
sven
hm
injury
##ards
tons
aug
further
currently
esa
attempt
wrong
##sil
sweet
##non
##lace
shed
remembered
##dge
jaw
type
golden
guy
##cio
fear
##sive
inch
eva
##aer
sul
##gan
overly
gage
effective
tyre
soul
##long
rim
##mei
##rce
metal
toy
ich
norm
defaulted
lex
gymnastics
##leg
fest
##gens
recent
happen
##tting
chapter
sorry
sleeping
medicine
##obe
stab
psi
spread
batter
##cen
##oning
##ham
intro
caught
newer
##cas
stitches
ears
##kor
burt
witch
starts
##rem
##ural
schedule
thirteen
##vey
glasses
##owing
invincible
weary
tony
##db
za
##sus
rose
secret
##cca
happily
bells
lau
noah
##eded
eighty
honest
##sily
ease
fully
##hea
##asi
##ater
earn
vertical
saturday
orr
##gol
doug
gently
ridiculous
shift
throbbing
does
bump
kinds
swing
##ffer
baby
np
mentally
##ital
quivering
##ban
##kling
gay
##gra
stat
serious
##vate
dod
nj
era
cad
hue
silently
hose
##far
##cide
mei
##ided
##kel
roe
##alo
gwen
traveled
bis
fairly
rarely
##ita
##sch
##ages
nz
pie
##hue
entered
##fur
boar
##gon
supper
build
forgot
looks
##aged
julia
doubles
positive
##nus
define
sane
##zie
national
##yar
##ours
wits
kun
tag
process
##rate
##uck
tome
muse
##nor
thor
dies
approx
##mate
##ions
##aki
cd
swear
lock
scratch
downs
##ack
dive
##uce
terri
tingling
button
spirits
##bow
sarah
##una
neat
##osh
jung
happier
##hood
##zee
thru
nile
inspired
silly
flowing
walker
##oz
arrived
points
eric
young
flight
mimi
bricks
den
goddamn
indoors
study
yd
##gia
##kong
##hid
grand
firing
cubic
movies
##sts
28
elk
##pot
measurements
##rrow
##aur
##ags
##lus
##oca
##try
##tip
##had
##bit
##abe
metre
##was
aim
##olin
##lan
ram
##lia
shea
metres
above
works
##sden
zen
oddly
gb
bedroom
##zine
waited
##him
##iner
##stic
mats
wrote
monitored
kate
gone
##dic
##rain
##gong
hunter
##sha
steady
gene
upstairs
stud
discomfort
woo
##rked
##nat
##rmi
##fus
rte
##ente
mast
pulp
4a
holiday
chi
##org
wear
##hon
12th
moth
##xia
military
lan
useless
students
##imi
##bla
##ran
usc
vary
##mmy
russian
twists
##chs
count
mia
##mon
tex
##iji
##hor
##dor
##tta
takes
rug
##vent
fact
##ahl
##nda
##cut
suicide
zur
received
involved
vie
dani
hardest
eighteen
##eric
quo
##mbs
##nall
vigor
french
showing
position
file
pressing
nutrition
##olo
185
gaining
heaviest
##can
135
##abi
##shi
cure
sue
oct
##nally
cpu
##avi
##ille
movie
survived
chair
roc
##tream
seas
dong
line
##ressed
lesson
jason
letter
##eng
##sho
whoever
shooting
pants
degree
##ening
allowed
torture
##nated
fry
##hone
##aga
##oes
mediation
private
square
##fied
relatively
sometime
##ctor
kb
clad
beth
##via
filling
##onal
send
thoroughly
font
middle
booth
ace
##ents
##lass
below
##eta
##zai
wax
ebert
hay
athletic
latter
steep
snow
dancer
##asse
##gent
simple
##hun
##hol
deck
##dak
ymca
sao
##tive
mfa
##ese
##bes
tnt
##mber
##iae
##lta
lately
powder
zoo
160
swollen
##ows
wander
cause
ding
##vb
vance
smooth
sky
##dis
gonna
ours
##nac
bloody
hugh
trained
##das
strange
mora
ava
blessed
wound
lick
lia
shake
prefer
public
therapy
##sas
weekends
##az
occasionally
##gger
herself
tasted
##las
ras
altogether
##ian
parked
besides
##nna
twisted
##kir
frame
##just
raked
parallel
##amina
##nas
##set
fulfilling
##hwa
sits
naval
paying
firm
##20
raf
sounds
follow
stan
archery
##tier
guitar
gore
vase
##mic
##lier
##uel
singing
jazz
annoyed
employee
nike
carr
##ised
growing
chemistry
embarrassed
##xes
figure
##late
ached
vis
tally
vest
peaceful
waterfall
cam
forest
##ently
##rit
helps
scenery
##tro
number
##oop
basque
##hia
coordination
pink
hall
teen
##kus
easily
tracked
distances
dock
michael
##mming
cafe
##old
240
##dar
##door
##rous
lead
satisfaction
mack
excitement
broken
##hong
karate
prepared
##uze
choreography
##uer
gal
##ale
massive
lunged
successive
##orro
##rio
grain
floors
forever
tres
mic
pausing
adding
mobility
death
impact
huff
rebound
dvd
todd
thrust
shuttle
ting
collapse
higher
aka
virginia
##ahu
jet
content
##oric
easier
##itis
surgery
limit
gross
##mist
slower
depleted
excellent
girlfriend
evidently
injured
hilly
engaged
owl
cried
doll
outdoors
crushed
plant
psyche
joint
weather
dragging
clothes
drenched
closer
shy
##shin
##qing
beau
##xon
##elo
success
ultimately
defeated
##eva
dex
##oat
goth
##iring
##pts
tests
##rton
creative
brand
deaf
##ndon
##iom
##mide
##cting
##mity
##tus
44
definite
sony
person
##matic
cbe
sir
hiss
##gram
dye
uno
##roi
##ams
##dus
peak
root
exhaustion
vamp
putin
moved
loads
bright
colt
##zen
gov
shrug
##rne
drills
bram
seen
chan
female
##ffs
##weight
reed
##gp
##rco
changed
emergency
knowing
women
assumed
##bah
sort
senior
citizen
sgt
noting
##jak
ashamed
lived
##odle
##cho
killer
##bour
realizing
##real
##fers
seth
behind
york
##ider
tent
throat
cheeks
afternoons
yourself
unless
tata
wash
##urn
token
page
##boy
regained
billion
cass
piece
alec
##ller
##cat
movements
##kur
roughly
repetition
##dent
sexy
stone
magic
allowing
##over
##cles
##thy
##hog
preacher
##iously
##imum
9th
##rok
hale
series
shen
##acy
##ddle
saved
##rky
blow
##rdo
scar
habit
guys
rice
strongly
##zhi
##walk
tay
##oor
##etic
bent
files
##rail
remaining
27
shoreline
straightened
##nee
english
##town
pei
##uber
whilst
bikes
##hire
##yr
letting
crossed
reluctantly
motorcycle
##nche
avoid
vic
greg
write
##hrer
##lot
atop
##dini
##ique
rude
##otho
##oko
happened
yun
quad
este
##lge
pains
flying
separate
brought
##coe
satisfying
##7th
needs
stage
lowe
march
lds
##tri
##lag
cod
successful
auf
##achi
professionally
fried
history
deal
##iba
professional
##bby
tracks
fished
gran
davis
owes
calendar
##ester
##mus
fewer
fastest
wakes
##rdy
bum
##azi
rift
mbe
male
folded
balls
monitor
##eke
mort
steadily
basement
mob
tao
##lch
##raj
earned
##cuit
##eye
choking
##gree
shots
##dek
##erin
##lez
struggled
british
laugh
sites
##ction
##ndi
cone
slam
skilled
relay
##see
paint
##gled
halt
##ered
##tton
land
gum
##lary
14
23
central
loaded
##etti
wished
huh
##night
guilty
##vc
buildings
##ril
longest
1000
target
family
achilles
##nai
dogs
reasons
##ened
company
missing
##dos
##eri
instant
##som
bore
appear
stress
ultimate
book
##ric
##wise
preserve
map
##ately
3rd
falcon
initial
worried
clearly
##fera
##otic
either
bring
preparing
##off
swung
##lved
join
##scoe
pages
mainly
##arm
##ils
##pit
painfully
rick
##ato
tuesday
##fan
rush
##kot
steer
##ising
##leen
tech
##esa
outstanding
##cking
holy
kv
words
##gle
##rval
##rgo
loco
##nan
lens
ignore
beneath
finding
##tore
##lga
nothin
wright
trips
##meo
rent
bringing
heated
aldo
##wide
##9th
score
church
##kled
##lde
tack
sake
##hett
rom
##alle
builds
m3
##uri
##oper
dorm
washing
cents
##ssa
##ulu
unexpectedly
##may
bucks
##pad
lamps
eleven
dev
anti
period
metric
brief
##cko
bathroom
tenth
sighed
##minated
##udi
daniel
##ides
##uli
38
smells
essentially
olds
aren
gray
grown
vaguely
noticed
reaction
##ished
demanding
jared
rei
xp
brian
develop
##enes
constant
##ssee
athlete
sooner
due
breaking
atm
isolated
space
stated
##rily
underneath
crying
##ngo
reading
bob
dazed
##rkin
##yp
##pie
zone
##ggs
burst
jane
##roy
emma
opened
##ttal
##rys
thug
rotten
fifth
##line
test
mighty
parker
##zzy
##well
likely
closes
##ache
laughed
##rson
lips
fake
notice
wine
tasks
##orn
##uls
##ono
kai
##fia
closed
##sau
##ride
code
case
jenny
##iri
vital
tremendous
moi
##iss
##pod
underwent
equally
##eses
vita
pak
insanity
##ctric
##nar
possibly
danger
vp
##lum
##yan
proved
decent
anne
official
##ggy
grabbed
rite
##gli
manly
poe
weaker
extended
pig
adi
##ael
clay
academic
85
##pressed
prepare
inter
multi
sting
swell
##uil
##4th
concrete
matt
bend
range
##nting
shack
endless
•
palm
##rion
。
accident
##cco
uncle
storm
uses
##tek
boxes
##face
ladder
##fight
trough
##00
bowling
dame
##ries
º
walls
##oro
##bered
lace
swelling
xv
bio
review
pit
##phy
lover
##aja
##dle
sara
armor
packed
calming
##uga
meanwhile
##rity
##ena
observing
motion
post
##rien
bucket
axle
##iah
##uen
timor
hearth
instructor
intimidated
##fles
fans
prep
meat
bree
##lous
rook
##vera
prom
seminar
##sson
##asa
endured
ashes
##aire
suffered
eating
##kar
among
fay
difficulty
suppose
##ibly
##eral
##rma
##eni
confidence
##media
##pse
tens
tears
younger
flea
spy
tick
originally
##dro
cannot
##44
##gil
fourth
##eet
severely
##cted
##lic
taken
considering
afro
faint
forte
locke
lets
discover
audio
##dah
##rna
rapid
##sco
##ang
measured
insides
tooth
toss
improving
##nem
guest
##rod
##uche
##bag
overwhelming
##kal
eco
cb
considerably
manage
##eck
interesting
kevin
98
yue
silk
##ima
sale
continued
otter
##tched
waking
##chee
ducks
uncomfortable
rib
##bis
grass
disgust
rey
certain
ioc
rolled
stepped
cao
nuts
robbed
search
##col
##ask
sidewalks
neither
paz
pet
bash
##gau
##gging
owing
jana
##vres
info
##ffen
gia
##ora
burnt
##rke
terror
hoped
ahead
intensely
##vers
continuing
##rro
tko
kan
corner
mons
blue
grant
lean
shortly
##oir
cloud
wade
touched
lines
possible
function
grade
cia
##ieg
carrying
##uated
##ina
cleaned
banda
tension
##mbo
handball
skill
monk
frog
saber
none
hopped
broad
wheelchair
netball
sides
cars
akin
league
obstacle
partners
functional
drama
walt
##tv
arrival
##rik
##lad
softball
sub
##rba
pushes
places
##fire
##rcle
worse
thank
costa
sand
electric
##tral
##hta
hound
##you
passive
ash
jeremy
owed
′
boys
rann
lasted
regis
grace
##wei
##aver
jar
typically
site
##vat
##fine
link
##ari
increasing
nsa
teach
dun
##bers
original
lobe
##ices
##emi
##ila
##sai
contest
luc
°
hearted
##ured
##vos
##nne
buddies
##vant
##ures
deer
rocks
##fall
fare
powers
sci
##aging
##table
canyon
##wind
welcome
##efe
tops
##kee
dina
key
grab
ming
cow
exciting
pic
wedding
anxious
jen
goa
likes
rio
##rage
erin
lever
hub
simultaneously
doesn
point
interest
##eres
sports
backyard
##ports
armour
az
lying
frequently
##iens
nora
champ
46
barefoot
##test
##sser
favorite
ankle
##die
continuously
##rek
breast
##eyer
##lto
izzy
##400
release
dawn
money
laos
threw
severe
wave
brig
quietly
pattern
bursting
7th
whip
##vered
##rip
##llan
blake
##oche
bao
##ram
extend
rings
extent
mead
como
##cked
##cin
cid
paul
coil
##lai
##ites
##tar
##roud
##rol
successfully
pad
couch
martial
##tsu
##astic
##chon
recovery
party
stars
server
180
studio
dub
peas
##lick
brew
list
says
static
slipped
cast
##now
anyone
kiss
fond
##kas
##olf
motive
comb
counting
##aud
##ums
winning
##pta
##ament
700
##vus
##kra
wife
conquer
achievement
litter
bwf
rag
##dai
bop
tournament
opponents
##lco
fund
remarkable
hearing
##bau
finals
theo
3000
idle
raced
##pia
mix
becomes
dinner
plenty
##rak
##tree
seasons
##rdi
actively
consisted
gasp
sons
##osed
pip
cop
pilot
shoe
vox
boat
gradually
weaken
pup
improved
##lish
##ots
##erly
writing
numerous
angry
given
cindy
rein
！
bill
washed
ropes
pitched
yell
relief
taekwondo
harm
##athlon
levels
entertained
temperature
melting
terrifying
ultra
spartan
rests
conquered
parc
sling
headache
completion
removes
fields
67
##ych
steve
shining
reward
towel
##block
circulation
chances
torre
pines
humidity
soup
heck
nintendo
switch
aimed
##mins
##phine
loop
cinder
sharp
sidewalk
orb
tender
realize
##ami
patch
parents
ties
lion
silence
port
exist
explore
550
bronze
52
spec
approached
lobby
27th
##used
solely
trains
42
nation
mate
##rger
arrow
outta
heath
powered
shaken
albeit
pts
snapped
bitter
##eno
mirror
132
valuable
exists
dropped
swore
attitude
alps
cleaner
trick
rang
##edly
flare
noise
motto
##posed
irs
##rrie
##sms
whom
eats
magnificent
dover
user
hungary
ole
##ncia
##gny
scarcely
##lit
##igo
brat
shell
players
taxi
necessary
fred
bret
##rant
accent
mitchell
difference
##ata
tale
70s
corn
losing
##tok
dream
60th
##kla
flair
##kei
##iter
fourteen
##uid
##ttes
punch
230
36
101
competing
bait
##ously
consist
pep
medici
kit
wounds
organs
##kan
##vez
wrestling
marking
thomas
divers
##nock
taft
season
politely
observed
issue
heaving
##rie
nails
##hri
##ija
##arion
impress
##wine
expecting
##some
regardless
##kov
bones
##ndt
platinum
afc
vein
dusk
fashion
quarters
##onis
##fell
tristan
vulnerable
a2
##zek
305
##yre
##otte
clips
##ested
thread
candy
powerless
bandage
makeshift
ego
absently
##key
##sight
outnumbered
##ional
sword
books
insect
##lon
304
swinging
pictures
multiple
wrapping
shakes
##reen
##tung
##olar
##hein
marks
##mere
nineteen
optimistic
ridden
medium
110
conversation
##kai
vehicles
##sey
royal
##oge
cherokee
towed
bai
minus
dire
blew
sufficiently
rides
jackson
ky
stroked
save
fate
allotted
rapidly
liam
northbound
rider
##adi
##sty
sundays
01
dent
bc
##dson
##hair
##eca
laced
spirit
depressed
##dez
historic
##yck
##cycle
##ddling
spd
tang
thoughts
##lock
##hra
cpi
highway
slapping
##plin
included
mouth
47
##bery
ship
##rah
combined
seventeen
huntington
sailed
cheated
jd
##35
claw
shirts
lille
amphibious
##zle
cyclist
canal
##free
crowe
jai
international
intend
covering
torso
bile
singles
suns
mentioned
##ator
eager
ops
mastered
centuries
##hur
dried
future
example
##bard
##van
weekend
##owed
alongside
hatch
names
##mount
musique
##eto
layer
fled
plate
montreal
drums
watches
turning
ascended
dared
january
pops
furiously
china
november
woken
requires
mourning
cc
fulfilled
##mbre
suit
##eem
size
afford
##tag
##kis
spell
##atal
##any
javelin
gough
inched
overs
lengths
piercing
##zel
emotional
##aring
torn
kim
##ggles
chef
##nik
resulting
rely
ideas
center
##lica
replied
flawless
brain
##nio
##imate
##ilo
##cht
annoying
campus
drinking
nose
wight
backwards
rails
nsw
chick
gap
massage
2013
knots
oak
circles
property
struggles
compete
hormones
##tute
39th
harding
##sling
placed
rained
downtown
##boro
stimulated
wearing
backpack
brains
##ingly
musik
police
expensive
pleasant
upbeat
pumpkin
husband
lively
yeast
6000
##iel
kings
listening
vigorously
##hop
reportedly
katie
motorized
dart
##ones
##vac
##edes
twin
reduce
hello
hiding
kong
bags
groceries
operate
wand
subdivision
##front
thrilled
trailed
relieve
despair
rigorous
distracted
forming
perimeter
cheered
tackle
leslie
sans
trek
tyler
june
##agh
nets
scott
##mar
closing
##gical
##usa
curses
##stis
unstable
toilet
##dim
foil
ventured
hurriedly
comes
##ties
enclosure
##90
##tized
##eus
skull
elliptic
clients
trans
plans
##bber
##xie
##cp
##list
jc
elliot
google
dice
##ysis
requiring
##arte
##rso
sly
resting
sultan
##tana
rocking
##llah
##bling
coli
fueled
gora
rica
##jali
filthy
liner
segment
steering
hanging
##yne
trainee
jr
##omi
rams
strung
##rave
keys
freak
nadia
##ury
soap
##uate
##oto
themselves
breasts
boss
opted
shipped
jay
fishes
##lio
‖
lasts
surface
locking
deserted
coat
epa
ordinary
##hora
##llar
rubbing
slid
##grad
greasy
host
chloe
eyelids
32
qur
brick
crack
synthetic
sixteen
camera
raja
cong
a1
rachel
route
stake
method
litre
dull
emery
snatch
##power
intern
##sius
cleared
highly
##lah
lightly
accepted
##orio
careful
##aby
##orth
gong
technically
busy
diet
helmet
niece
varsity
tastes
direct
sms
checked
repeat
promise
lauren
##vius
##lone
trauma
gavin
##kie
credits
shirt
hurried
weighing
older
npr
##tness
##gate
##cao
starr
aide
##sur
##ulous
exams
grave
##ois
viet
##lifting
rama
basis
wrestled
##ios
##cci
##aar
pub
bearing
constantly
tidy
seed
eyed
leader
##ifer
programs
ness
recognition
##kti
pulls
status
cafeteria
absorb
survey
millions
comfortably
ink
cared
cable
variations
jackie
##rued
##bas
flashed
orange
pinch
##kka
cute
fix
mason
norma
breaths
kidding
##anda
guilt
weakness
ether
zombies
prologue
##tyn
##ience
teeth
calculation
##eis
53
slight
##elli
crushing
atom
rb
destroyed
foods
pursue
gall
bulging
belief
twist
showed
##nted
sucking
england
maid
prints
pistol
strait
mrs
directed
agony
##roup
licked
screen
##hiti
rus
##scia
##yeh
created
##uka
houses
opponent
monthly
bursts
##tao
combat
rain
##acle
origin
##metric
##ani
##tial
##yra
guided
altitude
##rdes
##cera
drawn
##hony
##sity
cape
yielding
variety
minimum
championship
highest
##oia
counts
##dled
entitled
pair
drain
experiences
lord
subject
dick
lawyers
##antly
tug
inwardly
205
achieved
whig
momentum
sang
pont
lao
ginger
##ease
eps
defined
drawers
invented
miniature
twins
##eley
involve
surge
##vara
##idia
##opped
inches
##right
##lun
##itive
cues
filled
tun
splitting
124
upcoming
revolutions
temple
duties
ourselves
runaway
frustrating
wednesday
blinding
copies
mani
cushion
strap
volume
joining
fiat
pointe
##bbe
article
dealing
##uously
ox
crop
##esses
pigeon
##mur
jealous
##encia
##ctive
##pins
news
kant
visit
melted
slammed
noticeably
lump
##lam
buttons
##vine
moan
applied
##pone
hong
boost
juice
fox
##aea
temporary
39
##eased
curiosity
dogg
cheat
##nto
cent
##rum
204
78
badge
tully
contra
hence
##uding
##oof
smile
pitt
wrist
eased
##uke
##lash
virtually
bust
##laze
##tner
##dder
recognize
netflix
##tage
##mans
naturally
##hya
avoided
apples
videos
considered
thinks
pere
##yat
emotion
heather
##ana
nwa
dove
##gam
pure
action
indian
sensor
##olis
lied
pga
nay
ended
faa
confusion
fabulous
science
##fare
daytime
comfort
continuous
wheel
jude
research
tear
ssr
immersion
##sov
audience
note
redding
triumphant
##ogy
dc
responsible
spending
##icz
##vite
##zio
##ains
delay
bert
warmth
continually
sbs
mineral
roof
##yana
adjusting
##isa
##heim
##erie
millie
overnight
##icle
warmer
chip
fortunately
spaced
skirts
##ante
##ppet
pear
##rud
smelling
##lence
##ype
##ffi
confused
awkwardly
hugged
##nya
gradual
pasta
retreat
preparatory
##uni
required
nepal
freeze
waiter
expenditure
sadly
controls
pray
pretended
##33
cracking
summers
entertainment
enrolled
epic
##lard
##bid
teaches
freedom
moist
##istic
affect
judo
managing
##aint
couples
ying
diana
rhythmic
##acing
##athi
metabolism
##zes
gentle
laura
leases
gulp
adult
uv
regeneration
hyper
sway
iq
##rable
vice
##rier
promo
ahl
##uled
##yal
##tma
forehead
employees
##frey
legally
snout
dances
holly
slash
##sler
questions
arches
totaled
ray
underground
chicken
##fighter
accompany
afi
##nged
##kins
select
##lma
##och
##owe
told
##eia
flipped
grandpa
##zan
49
knocked
bang
##osing
anybody
whether
bark
scary
mick
checks
##dded
thrown
duck
##sca
underwear
zev
desperate
acceleration
m2
##ntal
##als
died
jeff
mere
shades
##sam
99
##rwin
bug
##ioms
suck
##jic
tapes
zhou
chose
##ores
##tub
rooted
##nary
rolf
flesh
##urse
lisa
album
brightly
hunt
snap
crashing
gingerly
##ssion
##vas
##cula
##iver
##word
crawled
witnessing
leo
mira
dimly
##ented
estate
stared
boosted
directly
swallowed
seventy
captain
##gui
folk
##oid
minimal
hysterical
merely
preferring
##gman
##rch
downhill
##nick
induced
pen
##ware
simulation
##ense
##vier
##osi
williams
mule
delighted
19
pulse
coward
caused
##nage
testing
##27
smarter
october
##eger
wipe
400
##rom
delight
##bir
corners
##like
cardiovascular
feat
slab
learned
arch
##iting
##cken
driving
limp
crash
kendra
familiar
crap
alternately
opposite
##hyl
##ists
ching
somme
##cier
orbital
granted
cutting
targets
sink
##gers
##bon
freely
leafs
motif
useful
##bai
##lene
##jee
lab
wood
##iled
26
v8
##pis
mouse
##ddy
suite
paths
##iad
existed
cage
yankee
##sher
slashed
beam
maintain
delle
yan
force
atlantic
platform
##rick
saul
##core
peng
##lves
surfing
pensacola
bureau
engineers
##qual
yelled
##tam
dramatically
composed
surprised
width
flock
christmas
##rial
sliding
stream
hydro
drill
hind
leaning
notably
sock
farmer
##peed
disco
leaves
remark
##ory
society
twisting
healing
##chers
chicago
kentucky
##gas
mock
taylor
moderate
dairy
bottle
herr
##tia
flood
bray
providing
poole
##case
##nent
intensive
##itch
pc
##pic
daring
microsoft
##64
##65
maneuver
##nging
attend
jem
##ically
##rini
lives
ads
geology
##gos
yep
fries
education
barge
forget
para
appeared
##cky
visibly
unwilling
##eson
digital
prescribed
knit
hats
equipment
oil
karen
proudly
mars
kansas
texas
nevertheless
muddy
##cter
children
evenings
everest
staying
flashlight
chasing
heading
commit
cote
hazard
journey
drew
squeezing
angle
##ener
shatter
bran
leading
hidden
ending
peaks
##oles
visibility
carpet
corridor
##oint
sign
interview
worlds
appreciate
##lson
trout
##dice
##gement
##nad
14th
traveling
56
deceased
waste
leak
andrew
cliff
mills
ridge
bouts
softly
wooded
forrest
loving
windy
cover
elm
pole
pinnacle
mounting
curve
curious
damon
limbs
dave
##uting
hiring
agreed
preferred
##iro
##pps
##rva
##deh
gripping
plateau
forested
##ddin
rob
california
ricky
northward
aid
surreal
mildly
averaging
dragged
raj
brest
##rring
elected
halloween
tossing
##zic
correct
officer
starred
morse
##mers
ants
##rca
hopefully
##rae
instrument
##tated
legendary
tasked
inca
brad
effectively
paws
child
coordinator
##tow
##jar
##down
tape
vastly
name
##hab
prove
averaged
lewis
abc
representing
teenage
##poo
featured
cope
ncaa
insane
horribly
civic
courses
methodist
dallas
uae
classic
och
intentionally
cite
traditional
elite
bing
shared
lastly
date
##uary
##away
##lund
squirrels
chance
##vity
dislike
unlike
##zily
precise
introducing
jessica
scuba
holland
argue
##dation
##rade
##cea
scene
##dav
waters
role
driven
nearest
upstream
ocean
decide
##ometer
php
exceptionally
afb
miami
##zation
shade
nonetheless
handle
##rine
owned
xbox
splashed
##ading
bath
swan
shan
meg
vivid
infinity
##mmon
south
fold
##ary
##kon
wouldn
##lho
fellow
squeezed
wwf
pleas
##berger
meeting
##sies
nape
countless
beaten
ninety
descent
surely
moment
emerged
lois
exited
diving
##iche
belle
animal
##edo
eureka
stain
chow
mail
##pling
ability
mount
culture
admit
zinc
##elle
recognized
acceptable
##mut
##rise
##tone
crisp
desperately
calling
tricks
suv
procedure
steal
linda
##rka
mega
favor
remembering
ritual
balloon
anna
silver
hammering
oz
beats
jae
cruise
states
jacket
##tment
motor
pol
upright
pussy
adjust
##aith
sold
rave
bother
##oic
options
henry
##dot
brutally
lights
techniques
raid
plastic
lara
defense
garden
sham
flip
restriction
##nger
leash
sideways
##bone
tong
##logical
secretly
micro
prime
revolution
feral
fists
hoc
fighting
##logram
cathy
collected
##uchi
##tern
220
harden
shri
»
##ored
applies
bari
management
chemist
##itz
raft
achieve
concluded
halle
raising
##ogo
sunk
stern
rust
hari
iced
##oys
rehearsals
indus
mba
##52
##ography
kira
##raphy
dancers
##yles
growled
battered
rays
##rona
##ony
##bility
touring
##aker
horizontal
offered
wooden
task
drag
somethin
shifted
understood
##ation
racer
fires
thirst
story
project
##lver
birch
140
jacob
inner
struck
critical
##nium
storing
##jure
##ello
devoid
cement
complicated
##pled
marcus
anger
leaped
bending
modern
pumps
stores
whisper
witnessed
jamie
consciousness
dell
anticipation
groans
stink
achieving
foul
catching
stories
##gna
##erate
##bbed
satin
built
scaled
nah
dare
sant
smashing
blankly
65
layers
uss
honor
mounted
ends
waist
mb
glue
##olic
descend
##forms
bonus
firstly
fool
##ooped
##mine
gary
##dara
##rized
##flight
##vn
attack
masters
drawings
copa
caf
shocked
gravel
winding
painting
##meter
apple
flavor
pius
##hip
tina
bain
calls
vain
##dda
steel
fragile
setup
injuries
slot
ix
rash
decades
coach
##orus
nick
##mia
entering
##edd
##bad
suburban
##nea
##iza
recreational
smell
urban
evan
##rno
limited
roads
jean
mama
##ific
##yst
teams
deed
##gal
shale
princess
victoria
##layer
valley
jeep
experiment
chess
##bri
casual
hockey
lash
##47
disgusting
##dern
##cta
bass
colonel
##nnis
##wyl
technology
runes
##ecin
guts
secondary
trim
edge
lei
totaling
drugs
spelled
waiting
similarly
ode
robot
renewed
wanting
84
vibrant
streets
laid
wage
##ori
##cast
##cion
##ples
77
##essed
bite
buzzed
contestant
penal
span
##rop
##cene
threatening
jungle
hoping
chase
prayer
asking
##haw
##wan
##rao
panting
jing
escape
##nine
ross
creepy
bearings
nerves
##bib
settled
coffee
tissue
##rath
rise
refer
fein
guests
##rmin
##dling
impatient
suits
sleepy
september
coco
clown
alter
planning
stick
ravi
loosely
frozen
blazing
mori
chocolate
##oshi
claws
gaa
backward
dante
believed
2nd
##riz
sport
##stead
##gins
violin
##oni
drawing
handful
excess
listened
254
filming
una
melody
operated
sees
medal
drops
brings
##ito
voice
900
##iano
evacuation
##cey
alike
##bey
harlem
plane
advanced
becca
added
tube
hail
situated
harvard
##city
geography
##uno
sensed
marcia
##age
##bos
blamed
destined
question
##ino
##tori
means
##eft
dot
twigs
conscious
edna
fm
##sky
sitting
groin
##nsis
##gaard
farms
biggest
pine
##tile
##pac
##llet
##tad
emily
##tang
ign
chew
lovers
hire
location
shark
scheduled
apollo
stops
##llis
laughing
shorts
##86
##ement
messy
keen
dress
formal
semi
haven
##sari
conditioned
cheerleading
##sar
##arat
valentine
recovered
mary
margaret
diaz
seems
##gang
uploaded
##rter
proof
##dou
]
moves
panic
mission
yelling
radio
heir
fiji
##uven
##ocks
ordered
frames
pretend
belong
rfc
catholic
##app
paces
tells
##ism
##fest
computer
daly
explaining
puff
ripped
whistled
limits
aden
written
dear
##uto
##pres
##urg
delivering
##logy
healed
##mir
serie
tongue
futile
regret
decision
##rica
scream
height
neatly
drowned
chains
##24
screw
locals
speak
rafe
##rone
embarrassing
discarded
jeans
slim
stung
skinned
answer
enjoyment
ceo
##oza
##isse
fran
paced
125
lies
text
##aco
40th
hart
33
knows
maya
pack
showers
tying
##ials
wards
pune
cough
##tify
gods
##bei
##unk
##nism
gao
kicking
##elis
##sure
##rling
clinic
##37
jones
tubular
bold
automatically
tian
warn
safety
paralyzed
combinations
##loe
perceived
lady
fuse
gil
correctly
wins
fallen
deco
timed
##unced
ric
reason
##itte
facial
cargo
curt
remains
ari
beaux
##udy
nero
parts
norse
29
##dev
locker
generating
enhanced
##pment
cities
excitedly
snakes
mask
operations
tries
##uses
##ments
wrapped
##vies
shitty
gymnasium
##reate
leah
##lak
wasted
punches
gigs
return
##ouse
##lies
##dler
kitten
anxiously
puck
father
mono
circulating
##tum
##imeters
overcome
trouble
somewhere
brutal
returned
segments
portions
considerable
romanian
##form
dedicated
leisure
pena
##tos
biker
wonders
##leton
sandwich
inadequate
helpful
##rangle
anticipated
pokemon
shiny
goals
doctor
trash
gains
aggressive
abdominal
planet
190
motivation
benches
##pal
##bha
lightweight
regime
centered
lifeless
tighten
cobra
lacrosse
derby
horse
intending
logged
alternating
bounce
slowing
routing
daughter
stepping
elevator
skiing
rewarded
atmosphere
rower
songs
batman
squad
elle
nylon
boulder
squash
paddle
##water
##rup
facility
skating
fours
cleaning
kitchen
